{
  "version": "1.0",
  "truncation": null,
  "padding": null,
  "added_tokens": [
    {
      "id": 0,
      "content": "<unk>",
      "single_word": false,
      "lstrip": false,
      "rstrip": false,
      "normalized": false,
      "special": true
    },
    {
      "id": 1,
      "content": "<pad>",
      "single_word": false,
      "lstrip": false,
      "rstrip": false,
      "normalized": false,
      "special": true
    },
    {
      "id": 2,
      "content": "<bos>",
      "single_word": false,
      "lstrip": false,
      "rstrip": false,
      "normalized": false,
      "special": true
    },
    {
      "id": 3,
      "content": "<eos>",
      "single_word": false,
      "lstrip": false,
      "rstrip": false,
      "normalized": false,
      "special": true
    },
    {
      "id": 4,
      "content": "<en>",
      "single_word": false,
      "lstrip": false,
      "rstrip": false,
      "normalized": false,
      "special": true
    },
    {
      "id": 5,
      "content": "<fr>",
      "single_word": false,
      "lstrip": false,
      "rstrip": false,
      "normalized": false,
      "special": true
    }
  ],
  "normalizer": null,
  "pre_tokenizer": {
    "type": "Whitespace"
  },
  "post_processor": null,
  "decoder": null,
  "model": {
    "type": "BPE",
    "dropout": null,
    "unk_token": "<unk>",
    "continuing_subword_prefix": null,
    "end_of_word_suffix": null,
    "fuse_unk": false,
    "byte_fallback": false,
    "ignore_merges": false,
    "vocab": {
      "<unk>": 0,
      "<pad>": 1,
      "<bos>": 2,
      "<eos>": 3,
      "<en>": 4,
      "<fr>": 5,
      "!": 6,
      "#": 7,
      "$": 8,
      "%": 9,
      "&": 10,
      "(": 11,
      ")": 12,
      "*": 13,
      "+": 14,
      ",": 15,
      "-": 16,
      ".": 17,
      "/": 18,
      "0": 19,
      "1": 20,
      "2": 21,
      "3": 22,
      "4": 23,
      "5": 24,
      "6": 25,
      "7": 26,
      "8": 27,
      "9": 28,
      ":": 29,
      ";": 30,
      "<": 31,
      "=": 32,
      ">": 33,
      "?": 34,
      "@": 35,
      "A": 36,
      "B": 37,
      "C": 38,
      "D": 39,
      "E": 40,
      "F": 41,
      "G": 42,
      "H": 43,
      "I": 44,
      "J": 45,
      "K": 46,
      "L": 47,
      "M": 48,
      "N": 49,
      "O": 50,
      "P": 51,
      "Q": 52,
      "R": 53,
      "S": 54,
      "T": 55,
      "U": 56,
      "V": 57,
      "W": 58,
      "X": 59,
      "Y": 60,
      "Z": 61,
      "[": 62,
      "\\": 63,
      "]": 64,
      "_": 65,
      "`": 66,
      "a": 67,
      "b": 68,
      "c": 69,
      "d": 70,
      "e": 71,
      "f": 72,
      "g": 73,
      "h": 74,
      "i": 75,
      "j": 76,
      "k": 77,
      "l": 78,
      "m": 79,
      "n": 80,
      "o": 81,
      "p": 82,
      "q": 83,
      "r": 84,
      "s": 85,
      "t": 86,
      "u": 87,
      "v": 88,
      "w": 89,
      "x": 90,
      "y": 91,
      "z": 92,
      "{": 93,
      "}": 94,
      "~": 95,
      "£": 96,
      "¥": 97,
      "§": 98,
      "«": 99,
      "°": 100,
      "±": 101,
      "²": 102,
      "º": 103,
      "»": 104,
      "½": 105,
      "À": 106,
      "Á": 107,
      "Â": 108,
      "Ã": 109,
      "Ä": 110,
      "Å": 111,
      "Ç": 112,
      "È": 113,
      "É": 114,
      "Ê": 115,
      "Í": 116,
      "Î": 117,
      "Ï": 118,
      "Ð": 119,
      "Ñ": 120,
      "Ó": 121,
      "Ô": 122,
      "Ö": 123,
      "×": 124,
      "Ø": 125,
      "Û": 126,
      "Ü": 127,
      "Ý": 128,
      "ß": 129,
      "à": 130,
      "á": 131,
      "â": 132,
      "ã": 133,
      "ä": 134,
      "å": 135,
      "æ": 136,
      "ç": 137,
      "è": 138,
      "é": 139,
      "ê": 140,
      "ë": 141,
      "ì": 142,
      "í": 143,
      "î": 144,
      "ï": 145,
      "ñ": 146,
      "ò": 147,
      "ó": 148,
      "ô": 149,
      "õ": 150,
      "ö": 151,
      "ø": 152,
      "ù": 153,
      "ú": 154,
      "û": 155,
      "ü": 156,
      "ý": 157,
      "ā": 158,
      "ă": 159,
      "ą": 160,
      "Ć": 161,
      "ć": 162,
      "ĉ": 163,
      "Ċ": 164,
      "ċ": 165,
      "Č": 166,
      "č": 167,
      "Ď": 168,
      "ď": 169,
      "Đ": 170,
      "Ę": 171,
      "ę": 172,
      "Ğ": 173,
      "ğ": 174,
      "Ģ": 175,
      "İ": 176,
      "ł": 177,
      "ń": 178,
      "ő": 179,
      "ś": 180,
      "ŝ": 181,
      "Ş": 182,
      "ş": 183,
      "Š": 184,
      "š": 185,
      "ţ": 186,
      "ź": 187,
      "ż": 188,
      "Ž": 189,
      "ž": 190,
      "Ǧ": 191,
      "ǧ": 192,
      "Ǵ": 193,
      "̀": 194,
      "́": 195,
      "̍": 196,
      "̸": 197,
      "μ": 198,
      "ϕ": 199,
      "–": 200,
      "—": 201,
      "‘": 202,
      "’": 203,
      "“": 204,
      "”": 205,
      "•": 206,
      "‰": 207,
      "−": 208,
      "─": 209,
      "│": 210,
      "┌": 211,
      "┐": 212,
      "└": 213,
      "┘": 214,
      "□": 215,
      "○": 216,
      "●": 217,
      "◦": 218,
      "on": 219,
      "es": 220,
      "en": 221,
      "ti": 222,
      "an": 223,
      "er": 224,
      "in": 225,
      "th": 226,
      "po": 227,
      "tion": 228,
      "re": 229,
      "de": 230,
      "the": 231,
      "al": 232,
      "ent": 233,
      "is": 234,
      "it": 235,
      "pos": 236,
      "ation": 237,
      "ar": 238,
      "or": 239,
      "le": 240,
      "apos": 241,
      "ur": 242,
      "qu": 243,
      "of": 244,
      "la": 245,
      "pr": 246,
      "te": 247,
      "fr": 248,
      "et": 249,
      "om": 250,
      "ou": 251,
      "ment": 252,
      "and": 253,
      "ce": 254,
      "at": 255,
      "to": 256,
      "con": 257,
      "as": 258,
      "des": 259,
      "ra": 260,
      "ic": 261,
      "au": 262,
      "les": 263,
      "il": 264,
      "ve": 265,
      "un": 266,
      "se": 267,
      "si": 268,
      "me": 269,
      "du": 270,
      "res": 271,
      "pro": 272,
      "for": 273,
      "par": 274,
      "ci": 275,
      "tr": 276,
      "ac": 277,
      "ing": 278,
      "ed": 279,
      "ter": 280,
      "que": 281,
      "19": 282,
      "li": 283,
      "ta": 284,
      "ations": 285,
      "op": 286,
      "ant": 287,
      "ne": 288,
      "ré": 289,
      "dé": 290,
      "su": 291,
      "ol": 292,
      "com": 293,
      "pe": 294,
      "ch": 295,
      "ai": 296,
      "di": 297,
      "199": 298,
      "ans": 299,
      "ér": 300,
      "ver": 301,
      "vi": 302,
      "ad": 303,
      "mb": 304,
      "és": 305,
      "ex": 306,
      "ag": 307,
      "por": 308,
      "he": 309,
      "be": 310,
      "ap": 311,
      "ces": 312,
      "us": 313,
      "ts": 314,
      "ot": 315,
      "our": 316,
      "sion": 317,
      "ec": 318,
      "ul": 319,
      "ir": 320,
      "pl": 321,
      "ro": 322,
      "im": 323,
      "pour": 324,
      "ont": 325,
      "ni": 326,
      "per": 327,
      "ma": 328,
      "tu": 329,
      "ational": 330,
      "Com": 331,
      "ly": 332,
      "aux": 333,
      "ité": 334,
      "ion": 335,
      "tin": 336,
      "ig": 337,
      "ff": 338,
      "té": 339,
      "qui": 340,
      "dans": 341,
      "ted": 342,
      "that": 343,
      "ab": 344,
      "inter": 345,
      "tions": 346,
      "el": 347,
      "national": 348,
      "vel": 349,
      "sur": 350,
      "st": 351,
      "port": 352,
      "ques": 353,
      "so": 354,
      "man": 355,
      "tre": 356,
      "une": 357,
      "its": 358,
      "mes": 359,
      "end": 360,
      "ance": 361,
      "The": 362,
      "oc": 363,
      "Con": 364,
      "oun": 365,
      "am": 366,
      "1993": 367,
      "co": 368,
      "pu": 369,
      "tic": 370,
      "quot": 371,
      "ence": 372,
      "ser": 373,
      "ith": 374,
      "tra": 375,
      "mis": 376,
      "ale": 377,
      "est": 378,
      "Nations": 379,
      "by": 380,
      "der": 381,
      "velop": 382,
      "ous": 383,
      "gan": 384,
      "with": 385,
      "ses": 386,
      "ity": 387,
      "comm": 388,
      "ld": 389,
      "ments": 390,
      "gra": 391,
      "ay": 392,
      "ie": 393,
      "cial": 394,
      "min": 395,
      "ée": 396,
      "tat": 397,
      "wh": 398,
      "ins": 399,
      "form": 400,
      "ven": 401,
      "dis": 402,
      "ting": 403,
      "In": 404,
      "ten": 405,
      "mo": 406,
      "ON": 407,
      "av": 408,
      "bl": 409,
      "tive": 410,
      "Un": 411,
      "ait": 412,
      "ate": 413,
      "ction": 414,
      "tri": 415,
      "cer": 416,
      "ther": 417,
      "én": 418,
      "00": 419,
      "bu": 420,
      "ord": 421,
      "ave": 422,
      "ary": 423,
      "ge": 424,
      "are": 425,
      "cl": 426,
      "all": 427,
      "olu": 428,
      "rap": 429,
      "international": 430,
      "ties": 431,
      "son": 432,
      "Sec": 433,
      "ég": 434,
      "ob": 435,
      "ited": 436,
      "ées": 437,
      "ire": 438,
      "gram": 439,
      "vis": 440,
      "igh": 441,
      "ould": 442,
      "no": 443,
      "ain": 444,
      "mission": 445,
      "ist": 446,
      "fin": 447,
      "mber": 448,
      "United": 449,
      "tif": 450,
      "organ": 451,
      "gr": 452,
      "sh": 453,
      "urs": 454,
      "em": 455,
      "éc": 456,
      "mit": 457,
      "Le": 458,
      "out": 459,
      "tiv": 460,
      "ener": 461,
      "ct": 462,
      "iz": 463,
      "over": 464,
      "As": 465,
      "aire": 466,
      "pre": 467,
      "été": 468,
      "aut": 469,
      "conom": 470,
      "ique": 471,
      "dro": 472,
      "pres": 473,
      "sa": 474,
      "titu": 475,
      "gén": 476,
      "olution": 477,
      "lement": 478,
      "lo": 479,
      "program": 480,
      "Uni": 481,
      "ri": 482,
      "was": 483,
      "ES": 484,
      "ue": 485,
      "Re": 486,
      "semb": 487,
      "eneral": 488,
      "vo": 489,
      "ère": 490,
      "ays": 491,
      "TI": 492,
      "génér": 493,
      "ich": 494,
      "ures": 495,
      "fic": 496,
      "ble": 497,
      "ill": 498,
      "pré": 499,
      "hu": 500,
      "gion": 501,
      "comp": 502,
      "coun": 503,
      "prés": 504,
      "ux": 505,
      "ités": 506,
      "aires": 507,
      "which": 508,
      "pas": 509,
      "nement": 510,
      "cons": 511,
      "ere": 512,
      "ard": 513,
      "up": 514,
      "ème": 515,
      "UN": 516,
      "ouver": 517,
      "General": 518,
      "mon": 519,
      "ari": 520,
      "id": 521,
      "pays": 522,
      "age": 523,
      "parti": 524,
      "cip": 525,
      "able": 526,
      "présent": 527,
      "ure": 528,
      "not": 529,
      "Commission": 530,
      "sp": 531,
      "we": 532,
      "De": 533,
      "ants": 534,
      "fer": 535,
      "sta": 536,
      "entre": 537,
      "from": 538,
      "éta": 539,
      "cess": 540,
      "Etat": 541,
      "concer": 542,
      "overn": 543,
      "person": 544,
      "pri": 545,
      "Unies": 546,
      "poli": 547,
      "tee": 548,
      "isation": 549,
      "La": 550,
      "ons": 551,
      "Assemb": 552,
      "cr": 553,
      "has": 554,
      "develop": 555,
      "EN": 556,
      "1992": 557,
      "int": 558,
      "cour": 559,
      "),": 560,
      ").": 561,
      "ers": 562,
      "dévelop": 563,
      "fi": 564,
      "serv": 565,
      "eff": 566,
      "acc": 567,
      "ace": 568,
      "Commit": 569,
      "session": 570,
      "ork": 571,
      "10": 572,
      "ret": 573,
      "ales": 574,
      "pement": 575,
      "tru": 576,
      "ded": 577,
      "Committee": 578,
      "gi": 579,
      "ass": 580,
      "Ch": 581,
      "sont": 582,
      "commun": 583,
      "os": 584,
      "plus": 585,
      "ès": 586,
      "ine": 587,
      "ud": 588,
      "ef": 589,
      "développement": 590,
      "pris": 591,
      "have": 592,
      "mil": 593,
      "blic": 594,
      "rés": 595,
      "sy": 596,
      "rou": 597,
      "ress": 598,
      "TION": 599,
      "lar": 600,
      "ite": 601,
      "ish": 602,
      "inform": 603,
      "ien": 604,
      "sub": 605,
      "Or": 606,
      "ient": 607,
      "AN": 608,
      "cis": 609,
      "been": 610,
      "posi": 611,
      "had": 612,
      "their": 613,
      "Les": 614,
      "nu": 615,
      "ren": 616,
      "bli": 617,
      "public": 618,
      "cil": 619,
      "cet": 620,
      "gu": 621,
      "cent": 622,
      "ais": 623,
      "ut": 624,
      "seil": 625,
      "ights": 626,
      "jet": 627,
      "this": 628,
      "Coun": 629,
      "concern": 630,
      "Comité": 631,
      "gh": 632,
      "198": 633,
      "human": 634,
      "coop": 635,
      "ke": 636,
      "pla": 637,
      "don": 638,
      "non": 639,
      "ty": 640,
      "II": 641,
      "droits": 642,
      "En": 643,
      "Conseil": 644,
      "vention": 645,
      "être": 646,
      "Stat": 647,
      "avec": 648,
      "ew": 649,
      "itu": 650,
      "under": 651,
      "ources": 652,
      "bil": 653,
      "jec": 654,
      "tribu": 655,
      "main": 656,
      "Organ": 657,
      "ER": 658,
      "Pro": 659,
      "Etats": 660,
      "né": 661,
      "bre": 662,
      "overnment": 663,
      "ture": 664,
      "Council": 665,
      "nel": 666,
      "partic": 667,
      "ach": 668,
      "Ad": 669,
      "other": 670,
      "States": 671,
      "ia": 672,
      "ond": 673,
      "programme": 674,
      "tes": 675,
      "od": 676,
      "ices": 677,
      "va": 678,
      "tem": 679,
      "12": 680,
      "do": 681,
      "ors": 682,
      "IN": 683,
      "should": 684,
      "adop": 685,
      "sup": 686,
      "rela": 687,
      "15": 688,
      "consi": 689,
      "ges": 690,
      "enti": 691,
      "cas": 692,
      "Il": 693,
      "tain": 694,
      "tives": 695,
      "aff": 696,
      "tech": 697,
      "ens": 698,
      "work": 699,
      "vent": 700,
      "mar": 701,
      "général": 702,
      "vision": 703,
      "met": 704,
      "situ": 705,
      "sou": 706,
      "tries": 707,
      "ication": 708,
      "économ": 709,
      "rit": 710,
      "trans": 711,
      "leur": 712,
      "hom": 713,
      "present": 714,
      "sec": 715,
      "were": 716,
      "AL": 717,
      "ouvernement": 718,
      "Th": 719,
      "minis": 720,
      "agrap": 721,
      "mbre": 722,
      "lic": 723,
      "ATION": 724,
      "contin": 725,
      "fac": 726,
      "OR": 727,
      "dent": 728,
      "autres": 729,
      "14": 730,
      "would": 731,
      "ear": 732,
      "Secret": 733,
      "will": 734,
      "go": 735,
      "aient": 736,
      "ron": 737,
      "ticle": 738,
      "cision": 739,
      "nes": 740,
      "import": 741,
      "spe": 742,
      "also": 743,
      "resp": 744,
      "tique": 745,
      "pend": 746,
      "ated": 747,
      "Secré": 748,
      "ies": 749,
      "imp": 750,
      "mand": 751,
      "bas": 752,
      "exam": 753,
      "sul": 754,
      "rapport": 755,
      "organis": 756,
      "soci": 757,
      "reg": 758,
      "paragrap": 759,
      "part": 760,
      "écur": 761,
      "nom": 762,
      "fo": 763,
      "ination": 764,
      "countries": 765,
      "écurité": 766,
      "11": 767,
      "um": 768,
      "ille": 769,
      "Afr": 770,
      "ocu": 771,
      "conf": 772,
      "lle": 773,
      "sécurité": 774,
      "report": 775,
      "fait": 776,
      "men": 777,
      "urity": 778,
      "plo": 779,
      "spé": 780,
      "elle": 781,
      "appro": 782,
      "ree": 783,
      "prin": 784,
      "région": 785,
      "dev": 786,
      "publi": 787,
      "tis": 788,
      "éri": 789,
      "og": 790,
      "istance": 791,
      "vers": 792,
      "activ": 793,
      "development": 794,
      "DE": 795,
      "diff": 796,
      "alement": 797,
      "mé": 798,
      "taire": 799,
      "ust": 800,
      "ose": 801,
      "incl": 802,
      "conomic": 803,
      "leg": 804,
      "teur": 805,
      "13": 806,
      "ong": 807,
      "viron": 808,
      "cette": 809,
      "RE": 810,
      "25": 811,
      "ération": 812,
      "information": 813,
      "inv": 814,
      "tout": 815,
      "IT": 816,
      "eu": 817,
      "ju": 818,
      "tiques": 819,
      "one": 820,
      "fu": 821,
      "low": 822,
      "IS": 823,
      "effor": 824,
      "mbres": 825,
      "lu": 826,
      "ang": 827,
      "sed": 828,
      "situation": 829,
      "oup": 830,
      "pai": 831,
      "eration": 832,
      "recomm": 833,
      "cre": 834,
      "Secretary": 835,
      "resolution": 836,
      "No": 837,
      "18": 838,
      "lée": 839,
      "000": 840,
      "16": 841,
      "Secrétaire": 842,
      "programmes": 843,
      "services": 844,
      "homme": 845,
      "résolution": 846,
      "rights": 847,
      "pul": 848,
      "ful": 849,
      "col": 850,
      "prom": 851,
      "duc": 852,
      "acti": 853,
      "tro": 854,
      "dra": 855,
      "ica": 856,
      "finan": 857,
      "jour": 858,
      "ms": 859,
      "lig": 860,
      "Assembly": 861,
      "48": 862,
      "organiz": 863,
      "effec": 864,
      "provi": 865,
      "mi": 866,
      "dom": 867,
      "viol": 868,
      "contribu": 869,
      "Organisation": 870,
      "ities": 871,
      "docu": 872,
      "question": 873,
      "appl": 874,
      "ical": 875,
      "ante": 876,
      "assistance": 877,
      "sé": 878,
      "Par": 879,
      "adminis": 880,
      "20": 881,
      "Convention": 882,
      "projet": 883,
      "region": 884,
      "tical": 885,
      "17": 886,
      "article": 887,
      "eting": 888,
      "led": 889,
      "social": 890,
      "It": 891,
      "ports": 892,
      "ory": 893,
      "mat": 894,
      "princip": 895,
      "ru": 896,
      "propos": 897,
      "rec": 898,
      "Inter": 899,
      "institu": 900,
      "Assemblée": 901,
      "iti": 902,
      "popul": 903,
      "ved": 904,
      "environ": 905,
      "Me": 906,
      "particip": 907,
      "val": 908,
      "Ré": 909,
      "générale": 910,
      "mer": 911,
      "ular": 912,
      "1991": 913,
      "view": 914,
      "ran": 915,
      "internationale": 916,
      "possi": 917,
      "Government": 918,
      "lec": 919,
      "chan": 920,
      "indi": 921,
      "voir": 922,
      "str": 923,
      "activités": 924,
      "1994": 925,
      "tement": 926,
      "respe": 927,
      "til": 928,
      "OM": 929,
      "ative": 930,
      "droit": 931,
      "dol": 932,
      "PR": 933,
      "nou": 934,
      "red": 935,
      "ial": 936,
      "consider": 937,
      "territ": 938,
      "blish": 939,
      "CE": 940,
      "cy": 941,
      "23": 942,
      "med": 943,
      "cep": 944,
      "dollar": 945,
      "esti": 946,
      "crim": 947,
      "eng": 948,
      "member": 949,
      "ference": 950,
      "ow": 951,
      "che": 952,
      "tention": 953,
      "47": 954,
      "bud": 955,
      "dur": 956,
      "accord": 957,
      "action": 958,
      "dollars": 959,
      "près": 960,
      "meeting": 961,
      "such": 962,
      "ainsi": 963,
      "vities": 964,
      "Ar": 965,
      "plan": 966,
      "mment": 967,
      "TH": 968,
      "26": 969,
      "ires": 970,
      "fon": 971,
      "publique": 972,
      "Co": 973,
      "ber": 974,
      "30": 975,
      "peace": 976,
      "cours": 977,
      "paix": 978,
      "place": 979,
      "lan": 980,
      "dition": 981,
      "clar": 982,
      "tant": 983,
      "érence": 984,
      "occ": 985,
      "ément": 986,
      "vil": 987,
      "budg": 988,
      "21": 989,
      "efforts": 990,
      "bien": 991,
      "iss": 992,
      "cré": 993,
      "air": 994,
      "ign": 995,
      "sus": 996,
      "cap": 997,
      "ult": 998,
      "car": 999,
      "ese": 1000,
      "ères": 1001,
      "wel": 1002,
      "cé": 1003,
      "Mr": 1004,
      "tifs": 1005,
      "trava": 1006,
      "activities": 1007,
      "également": 1008,
      "comme": 1009,
      "nombre": 1010,
      "sys": 1011,
      "Grou": 1012,
      "pen": 1013,
      "land": 1014,
      "milit": 1015,
      "try": 1016,
      "tous": 1017,
      "tection": 1018,
      "leurs": 1019,
      "Au": 1020,
      "ph": 1021,
      "continu": 1022,
      "bor": 1023,
      "consul": 1024,
      "AR": 1025,
      "nex": 1026,
      "An": 1027,
      "représent": 1028,
      "24": 1029,
      "ême": 1030,
      "lég": 1031,
      "érie": 1032,
      "ONU": 1033,
      "ents": 1034,
      "ess": 1035,
      "sig": 1036,
      "ild": 1037,
      "esta": 1038,
      "spécial": 1039,
      "tex": 1040,
      "uli": 1041,
      "sui": 1042,
      "deux": 1043,
      "pte": 1044,
      "faire": 1045,
      "establish": 1046,
      "four": 1047,
      "coord": 1048,
      "orld": 1049,
      "mesures": 1050,
      "tak": 1051,
      "ENT": 1052,
      "quel": 1053,
      "International": 1054,
      "sel": 1055,
      "group": 1056,
      "jus": 1057,
      "parties": 1058,
      "Se": 1059,
      "contre": 1060,
      "OF": 1061,
      "économique": 1062,
      "bet": 1063,
      "particuli": 1064,
      "Republic": 1065,
      "techn": 1066,
      "Al": 1067,
      "economic": 1068,
      "implement": 1069,
      "ization": 1070,
      "use": 1071,
      "ances": 1072,
      "ight": 1073,
      "if": 1074,
      "rait": 1075,
      "bo": 1076,
      "pli": 1077,
      "ner": 1078,
      "membres": 1079,
      "made": 1080,
      "contr": 1081,
      "THE": 1082,
      "constitu": 1083,
      "appe": 1084,
      "produ": 1085,
      "gen": 1086,
      "Security": 1087,
      "milli": 1088,
      "olog": 1089,
      "tou": 1090,
      "population": 1091,
      "cla": 1092,
      "questions": 1093,
      "issu": 1094,
      "offic": 1095,
      "République": 1096,
      "ariat": 1097,
      "Sta": 1098,
      "dont": 1099,
      "ide": 1100,
      "year": 1101,
      "ally": 1102,
      "ollow": 1103,
      "For": 1104,
      "isse": 1105,
      "sident": 1106,
      "rough": 1107,
      "ences": 1108,
      "22": 1109,
      "system": 1110,
      "ak": 1111,
      "ip": 1112,
      "those": 1113,
      "position": 1114,
      "pecial": 1115,
      "document": 1116,
      "nécess": 1117,
      "AC": 1118,
      "vre": 1119,
      "vant": 1120,
      "abil": 1121,
      "char": 1122,
      "paragraph": 1123,
      "personnel": 1124,
      "new": 1125,
      "Is": 1126,
      "any": 1127,
      "ressources": 1128,
      "gouvernement": 1129,
      "Add": 1130,
      "objec": 1131,
      "ope": 1132,
      "application": 1133,
      "coopération": 1134,
      "endre": 1135,
      "ils": 1136,
      "more": 1137,
      "tamment": 1138,
      "SE": 1139,
      "férence": 1140,
      "particular": 1141,
      "budget": 1142,
      "loc": 1143,
      ");": 1144,
      "und": 1145,
      "ves": 1146,
      "sous": 1147,
      "ocra": 1148,
      "ple": 1149,
      "positions": 1150,
      "Min": 1151,
      "som": 1152,
      "travail": 1153,
      "cle": 1154,
      "ween": 1155,
      "ft": 1156,
      "point": 1157,
      "follow": 1158,
      "LA": 1159,
      "protection": 1160,
      "On": 1161,
      "force": 1162,
      "his": 1163,
      "aus": 1164,
      "ues": 1165,
      "between": 1166,
      "même": 1167,
      "aine": 1168,
      "occup": 1169,
      "Su": 1170,
      "Conference": 1171,
      "197": 1172,
      "Program": 1173,
      "dic": 1174,
      "oire": 1175,
      "into": 1176,
      "institutions": 1177,
      "appor": 1178,
      "organizations": 1179,
      "peop": 1180,
      "stitu": 1181,
      "demand": 1182,
      "uding": 1183,
      "nées": 1184,
      "peri": 1185,
      "fé": 1186,
      "law": 1187,
      "décision": 1188,
      "represent": 1189,
      "était": 1190,
      "ural": 1191,
      "omen": 1192,
      "lui": 1193,
      "Conférence": 1194,
      "Ser": 1195,
      "time": 1196,
      "clu": 1197,
      "oir": 1198,
      "order": 1199,
      "iter": 1200,
      "27": 1201,
      "éli": 1202,
      "olutions": 1203,
      "cooperation": 1204,
      "mais": 1205,
      "requi": 1206,
      "sie": 1207,
      "but": 1208,
      "Dé": 1209,
      "act": 1210,
      "fem": 1211,
      "nous": 1212,
      "need": 1213,
      "Gouvernement": 1214,
      "reat": 1215,
      "promo": 1216,
      "ib": 1217,
      "teurs": 1218,
      "elles": 1219,
      "nal": 1220,
      "cor": 1221,
      "rel": 1222,
      "syst": 1223,
      "Programme": 1224,
      "thor": 1225,
      "iques": 1226,
      "Pré": 1227,
      "termin": 1228,
      "decision": 1229,
      "ctor": 1230,
      "inté": 1231,
      "1990": 1232,
      "avait": 1233,
      "country": 1234,
      "mondi": 1235,
      "including": 1236,
      "techni": 1237,
      "provision": 1238,
      "tal": 1239,
      "ATIONS": 1240,
      "28": 1241,
      "mocra": 1242,
      "ctions": 1243,
      "tien": 1244,
      "examin": 1245,
      "péri": 1246,
      "creas": 1247,
      "ième": 1248,
      "LE": 1249,
      "respon": 1250,
      "amb": 1251,
      "bes": 1252,
      "nat": 1253,
      "ôle": 1254,
      "mettre": 1255,
      "labor": 1256,
      "Develop": 1257,
      "ound": 1258,
      "there": 1259,
      "regard": 1260,
      "ile": 1261,
      "meas": 1262,
      "vé": 1263,
      "possible": 1264,
      "well": 1265,
      "assur": 1266,
      "Hu": 1267,
      "support": 1268,
      "fication": 1269,
      "again": 1270,
      "ps": 1271,
      "31": 1272,
      "sions": 1273,
      "cher": 1274,
      "through": 1275,
      "enda": 1276,
      "humanit": 1277,
      "reques": 1278,
      "fa": 1279,
      "nements": 1280,
      "organisations": 1281,
      "ploy": 1282,
      "exer": 1283,
      "ters": 1284,
      "At": 1285,
      "concernant": 1286,
      "members": 1287,
      "who": 1288,
      "UR": 1289,
      "rent": 1290,
      "certain": 1291,
      "notamment": 1292,
      "Ac": 1293,
      "ati": 1294,
      "mun": 1295,
      "ditions": 1296,
      "set": 1297,
      "tw": 1298,
      "State": 1299,
      "they": 1300,
      "Président": 1301,
      "important": 1302,
      "implementation": 1303,
      "sive": 1304,
      "ore": 1305,
      "alesti": 1306,
      "respect": 1307,
      "formation": 1308,
      "resources": 1309,
      "politiques": 1310,
      "fond": 1311,
      "ise": 1312,
      "level": 1313,
      "Ex": 1314,
      "vice": 1315,
      "ks": 1316,
      "these": 1317,
      "29": 1318,
      "Special": 1319,
      "lé": 1320,
      "ordre": 1321,
      "aussi": 1322,
      "Human": 1323,
      "initi": 1324,
      "manent": 1325,
      "1995": 1326,
      "fore": 1327,
      "urther": 1328,
      "Sou": 1329,
      "increas": 1330,
      "toutes": 1331,
      "Development": 1332,
      "can": 1333,
      "fam": 1334,
      "vie": 1335,
      "veau": 1336,
      "Rights": 1337,
      "cur": 1338,
      "government": 1339,
      "nation": 1340,
      "political": 1341,
      "cri": 1342,
      "long": 1343,
      "ating": 1344,
      "ali": 1345,
      "mande": 1346,
      "compte": 1347,
      "jo": 1348,
      "ates": 1349,
      "na": 1350,
      "author": 1351,
      "anti": 1352,
      "rele": 1353,
      "réun": 1354,
      "taken": 1355,
      "regional": 1356,
      "èmes": 1357,
      "gé": 1358,
      "Dans": 1359,
      "att": 1360,
      "avoir": 1361,
      "TE": 1362,
      "bility": 1363,
      "appu": 1364,
      "auté": 1365,
      "number": 1366,
      "probl": 1367,
      "autor": 1368,
      "vue": 1369,
      "gos": 1370,
      "oblig": 1371,
      "ving": 1372,
      "étu": 1373,
      "CON": 1374,
      "Ag": 1375,
      "measures": 1376,
      "claration": 1377,
      "gosla": 1378,
      "ducation": 1379,
      "inte": 1380,
      "als": 1381,
      "appropri": 1382,
      "cul": 1383,
      "annex": 1384,
      "cad": 1385,
      "conditions": 1386,
      "personnes": 1387,
      "après": 1388,
      "politique": 1389,
      "paragraphe": 1390,
      "effic": 1391,
      "ince": 1392,
      "Eur": 1393,
      "gl": 1394,
      "forces": 1395,
      "quar": 1396,
      "polic": 1397,
      "sans": 1398,
      "mise": 1399,
      "observ": 1400,
      "écu": 1401,
      "oper": 1402,
      "ban": 1403,
      "vic": 1404,
      "vol": 1405,
      "Europe": 1406,
      "cond": 1407,
      "ice": 1408,
      "CR": 1409,
      "lles": 1410,
      "recommand": 1411,
      "civil": 1412,
      "util": 1413,
      "urg": 1414,
      "cau": 1415,
      "osni": 1416,
      "soit": 1417,
      "déce": 1418,
      "Char": 1419,
      "valu": 1420,
      "enf": 1421,
      "So": 1422,
      "tent": 1423,
      "tière": 1424,
      "premi": 1425,
      "peut": 1426,
      "instru": 1427,
      "Mar": 1428,
      "bi": 1429,
      "système": 1430,
      "discrim": 1431,
      "process": 1432,
      "Dece": 1433,
      "ications": 1434,
      "December": 1435,
      "ards": 1436,
      "consult": 1437,
      "décembre": 1438,
      "against": 1439,
      "moy": 1440,
      "ables": 1441,
      "fonction": 1442,
      "actu": 1443,
      "them": 1444,
      "prises": 1445,
      "agement": 1446,
      "ones": 1447,
      "entif": 1448,
      "clear": 1449,
      "femmes": 1450,
      "Pr": 1451,
      "jud": 1452,
      "draft": 1453,
      "fe": 1454,
      "two": 1455,
      "period": 1456,
      "fir": 1457,
      "Bosni": 1458,
      "jur": 1459,
      "mul": 1460,
      "partie": 1461,
      "pur": 1462,
      "bles": 1463,
      "nouvel": 1464,
      "Minis": 1465,
      "gar": 1466,
      "now": 1467,
      "ût": 1468,
      "tration": 1469,
      "sure": 1470,
      "may": 1471,
      "coordination": 1472,
      "NATIONS": 1473,
      "cadre": 1474,
      "expres": 1475,
      "uni": 1476,
      "équ": 1477,
      "could": 1478,
      "NU": 1479,
      "ized": 1480,
      "dies": 1481,
      "née": 1482,
      "IG": 1483,
      "stat": 1484,
      "some": 1485,
      "nor": 1486,
      "égo": 1487,
      "pou": 1488,
      "dire": 1489,
      "exécu": 1490,
      "let": 1491,
      "46": 1492,
      "women": 1493,
      "aly": 1494,
      "administra": 1495,
      "change": 1496,
      "ican": 1497,
      "atives": 1498,
      "rè": 1499,
      "This": 1500,
      "prof": 1501,
      "ene": 1502,
      "aur": 1503,
      "effective": 1504,
      "50": 1505,
      "tor": 1506,
      "pério": 1507,
      "Afrique": 1508,
      "ning": 1509,
      "resid": 1510,
      "stru": 1511,
      "CI": 1512,
      "enne": 1513,
      "special": 1514,
      "ET": 1515,
      "eth": 1516,
      "attention": 1517,
      "az": 1518,
      "item": 1519,
      "fois": 1520,
      "importance": 1521,
      "very": 1522,
      "addition": 1523,
      "recommend": 1524,
      "iser": 1525,
      "inclu": 1526,
      "Africa": 1527,
      "vement": 1528,
      "people": 1529,
      "right": 1530,
      "come": 1531,
      "prim": 1532,
      "dispositions": 1533,
      "raient": 1534,
      "ines": 1535,
      "Rappor": 1536,
      "peup": 1537,
      "exper": 1538,
      "penses": 1539,
      "owe": 1540,
      "puis": 1541,
      "br": 1542,
      "où": 1543,
      "prior": 1544,
      "mont": 1545,
      "ense": 1546,
      "je": 1547,
      "conclu": 1548,
      "must": 1549,
      "doit": 1550,
      "Govern": 1551,
      "take": 1552,
      "ina": 1553,
      "fourn": 1554,
      "proble": 1555,
      "facil": 1556,
      "lors": 1557,
      "within": 1558,
      "jan": 1559,
      "security": 1560,
      "Groupe": 1561,
      "Rapporteur": 1562,
      "only": 1563,
      "cus": 1564,
      "toute": 1565,
      "pec": 1566,
      "see": 1567,
      "ament": 1568,
      "els": 1569,
      "capac": 1570,
      "pendant": 1571,
      "prendre": 1572,
      "missions": 1573,
      "cho": 1574,
      "child": 1575,
      "ats": 1576,
      "CO": 1577,
      "aci": 1578,
      "particulier": 1579,
      "developing": 1580,
      "réunion": 1581,
      "40": 1582,
      "world": 1583,
      "tric": 1584,
      "ining": 1585,
      "then": 1586,
      "commer": 1587,
      "being": 1588,
      "inal": 1589,
      "note": 1590,
      "conform": 1591,
      "proces": 1592,
      "appli": 1593,
      "adopté": 1594,
      "We": 1595,
      "participation": 1596,
      "further": 1597,
      "diffic": 1598,
      "mal": 1599,
      "nature": 1600,
      "rais": 1601,
      "alth": 1602,
      "tice": 1603,
      "Off": 1604,
      "than": 1605,
      "préc": 1606,
      "He": 1607,
      "rece": 1608,
      "responsi": 1609,
      "environnement": 1610,
      "direc": 1611,
      "Palesti": 1612,
      "..": 1613,
      "jor": 1614,
      "following": 1615,
      "eld": 1616,
      "aï": 1617,
      "date": 1618,
      "tenir": 1619,
      "projec": 1620,
      "auc": 1621,
      "af": 1622,
      "règ": 1623,
      "Gu": 1624,
      "ian": 1625,
      "continue": 1626,
      "COM": 1627,
      "ep": 1628,
      "cal": 1629,
      "Her": 1630,
      "Po": 1631,
      "deleg": 1632,
      "procé": 1633,
      "titre": 1634,
      "AU": 1635,
      "ID": 1636,
      "45": 1637,
      "base": 1638,
      "considé": 1639,
      "agree": 1640,
      "adopted": 1641,
      "reed": 1642,
      "dus": 1643,
      "Organization": 1644,
      "ites": 1645,
      "king": 1646,
      "nationaux": 1647,
      "suite": 1648,
      "tenu": 1649,
      "délég": 1650,
      "commit": 1651,
      "trois": 1652,
      "community": 1653,
      "total": 1654,
      "recon": 1655,
      "afin": 1656,
      "ITE": 1657,
      "war": 1658,
      "affir": 1659,
      "mor": 1660,
      "stand": 1661,
      "multi": 1662,
      "Member": 1663,
      "proce": 1664,
      "matière": 1665,
      "ellement": 1666,
      "70": 1667,
      "most": 1668,
      "vaux": 1669,
      "Ce": 1670,
      "environment": 1671,
      "respons": 1672,
      "tés": 1673,
      "qual": 1674,
      "uly": 1675,
      "major": 1676,
      "ah": 1677,
      "Cro": 1678,
      "encour": 1679,
      "governmental": 1680,
      "AD": 1681,
      "III": 1682,
      "discrimination": 1683,
      "Ira": 1684,
      "cro": 1685,
      "staff": 1686,
      "add": 1687,
      "93": 1688,
      "shall": 1689,
      "autre": 1690,
      "affec": 1691,
      "DES": 1692,
      "ze": 1693,
      "Iraq": 1694,
      "ral": 1695,
      "travaux": 1696,
      "cies": 1697,
      "violations": 1698,
      "New": 1699,
      "ade": 1700,
      "ast": 1701,
      "Sud": 1702,
      "essenti": 1703,
      "gro": 1704,
      "assurer": 1705,
      "May": 1706,
      "réal": 1707,
      "high": 1708,
      "financi": 1709,
      "sci": 1710,
      "RA": 1711,
      "MENT": 1712,
      "gy": 1713,
      "first": 1714,
      "relations": 1715,
      "ind": 1716,
      "beso": 1717,
      "istan": 1718,
      "ici": 1719,
      "held": 1720,
      "areas": 1721,
      "necess": 1722,
      "during": 1723,
      "stitution": 1724,
      "quer": 1725,
      "provided": 1726,
      "relevant": 1727,
      "tains": 1728,
      "ateurs": 1729,
      "July": 1730,
      "South": 1731,
      "Group": 1732,
      "derni": 1733,
      "provide": 1734,
      "illet": 1735,
      "Mo": 1736,
      "IC": 1737,
      "oeu": 1738,
      "établi": 1739,
      "domaine": 1740,
      "many": 1741,
      "peu": 1742,
      "range": 1743,
      "ration": 1744,
      "stu": 1745,
      "core": 1746,
      "DU": 1747,
      "loi": 1748,
      "organismes": 1749,
      "ship": 1750,
      "lation": 1751,
      "spéci": 1752,
      "Mis": 1753,
      "ied": 1754,
      "issement": 1755,
      "esp": 1756,
      "fund": 1757,
      "dat": 1758,
      "juillet": 1759,
      "dépenses": 1760,
      "Per": 1761,
      "para": 1762,
      "Som": 1763,
      "gestion": 1764,
      "séance": 1765,
      "processus": 1766,
      "arm": 1767,
      "mondiale": 1768,
      "Dec": 1769,
      "rép": 1770,
      "Si": 1771,
      "permanent": 1772,
      "fuge": 1773,
      "Presid": 1774,
      "owever": 1775,
      "military": 1776,
      "uses": 1777,
      "Tra": 1778,
      "respec": 1779,
      "iste": 1780,
      "communauté": 1781,
      "AT": 1782,
      "years": 1783,
      "issues": 1784,
      "Cour": 1785,
      "texte": 1786,
      "arian": 1787,
      "inst": 1788,
      "compl": 1789,
      "Economic": 1790,
      "étaient": 1791,
      "avaient": 1792,
      "Amer": 1793,
      "érations": 1794,
      "dit": 1795,
      "suff": 1796,
      "internationales": 1797,
      "Oc": 1798,
      "where": 1799,
      "Centre": 1800,
      "accep": 1801,
      "famil": 1802,
      "Sub": 1803,
      "reli": 1804,
      "Nous": 1805,
      "rôle": 1806,
      "submit": 1807,
      "cir": 1808,
      "aid": 1809,
      "tation": 1810,
      "persons": 1811,
      "World": 1812,
      "June": 1813,
      "agen": 1814,
      "AND": 1815,
      "196": 1816,
      "contra": 1817,
      "établ": 1818,
      "vari": 1819,
      "juin": 1820,
      "ding": 1821,
      "venir": 1822,
      "Isra": 1823,
      "Pe": 1824,
      "fugi": 1825,
      "field": 1826,
      "aines": 1827,
      "mai": 1828,
      "moins": 1829,
      "étr": 1830,
      "suc": 1831,
      "devrait": 1832,
      "pose": 1833,
      "liber": 1834,
      "rate": 1835,
      "aide": 1836,
      "role": 1837,
      "OP": 1838,
      "itation": 1839,
      "inde": 1840,
      "contributions": 1841,
      "tained": 1842,
      "graph": 1843,
      "large": 1844,
      "examen": 1845,
      "ao": 1846,
      "33": 1847,
      "ref": 1848,
      "ler": 1849,
      "Commun": 1850,
      "montant": 1851,
      "réfugi": 1852,
      "demande": 1853,
      "problèmes": 1854,
      "affaires": 1855,
      "égard": 1856,
      "tariat": 1857,
      "prév": 1858,
      "analy": 1859,
      "comple": 1860,
      "text": 1861,
      "police": 1862,
      "accoun": 1863,
      "minor": 1864,
      "emp": 1865,
      "financial": 1866,
      "constru": 1867,
      "semble": 1868,
      "To": 1869,
      "Bo": 1870,
      "concerne": 1871,
      "prog": 1872,
      "administration": 1873,
      "bat": 1874,
      "ION": 1875,
      "démocra": 1876,
      "million": 1877,
      "DP": 1878,
      "table": 1879,
      "effet": 1880,
      "review": 1881,
      "intér": 1882,
      "jou": 1883,
      "qué": 1884,
      "plu": 1885,
      "ensure": 1886,
      "bilité": 1887,
      "mér": 1888,
      "Mission": 1889,
      "technique": 1890,
      "compris": 1891,
      "mention": 1892,
      "dés": 1893,
      "tend": 1894,
      "reports": 1895,
      "indivi": 1896,
      "ls": 1897,
      "Octo": 1898,
      "necessary": 1899,
      "35": 1900,
      "atég": 1901,
      "President": 1902,
      "October": 1903,
      "Aug": 1904,
      "appui": 1905,
      "conformément": 1906,
      "différ": 1907,
      "ME": 1908,
      "octo": 1909,
      "Social": 1910,
      "octobre": 1911,
      "CN": 1912,
      "économiques": 1913,
      "QU": 1914,
      "INAL": 1915,
      "ages": 1916,
      "ivent": 1917,
      "discus": 1918,
      "Septe": 1919,
      "speci": 1920,
      "oeuvre": 1921,
      "require": 1922,
      "encore": 1923,
      "September": 1924,
      "related": 1925,
      "rapports": 1926,
      "technolog": 1927,
      "sera": 1928,
      "promotion": 1929,
      "1989": 1930,
      "RES": 1931,
      "fact": 1932,
      "enfants": 1933,
      "oires": 1934,
      "inf": 1935,
      "Des": 1936,
      "general": 1937,
      "ORIG": 1938,
      "médi": 1939,
      "mu": 1940,
      "same": 1941,
      "ORIGINAL": 1942,
      "période": 1943,
      "chap": 1944,
      "cture": 1945,
      "Nove": 1946,
      "basis": 1947,
      "November": 1948,
      "Pour": 1949,
      "UNI": 1950,
      "agenda": 1951,
      "Membres": 1952,
      "cause": 1953,
      "ador": 1954,
      "améli": 1955,
      "August": 1956,
      "septe": 1957,
      "septembre": 1958,
      "bun": 1959,
      "conflic": 1960,
      "accordance": 1961,
      "Constitution": 1962,
      "nove": 1963,
      "amélior": 1964,
      "ril": 1965,
      "laboration": 1966,
      "sant": 1967,
      "voy": 1968,
      "novembre": 1969,
      "provisions": 1970,
      "opérations": 1971,
      "ii": 1972,
      "outre": 1973,
      "HCR": 1974,
      "déci": 1975,
      "net": 1976,
      "ric": 1977,
      "ories": 1978,
      "août": 1979,
      "confl": 1980,
      "established": 1981,
      "réfugiés": 1982,
      "maintien": 1983,
      "informations": 1984,
      "streng": 1985,
      "projets": 1986,
      "Dire": 1987,
      "IV": 1988,
      "impro": 1989,
      "obser": 1990,
      "ght": 1991,
      "six": 1992,
      "glob": 1993,
      "ST": 1994,
      "read": 1995,
      "ouv": 1996,
      "dure": 1997,
      "violence": 1998,
      "Di": 1999,
      "Office": 2000,
      "intégr": 2001,
      "étrang": 2002,
      "Apr": 2003,
      "ecu": 2004,
      "subst": 2005,
      "both": 2006,
      "sition": 2007,
      "quelle": 2008,
      "auto": 2009,
      "Acc": 2010,
      "tran": 2011,
      "training": 2012,
      "doivent": 2013,
      "permet": 2014,
      "transfer": 2015,
      "recei": 2016,
      "appropriate": 2017,
      "extra": 2018,
      "area": 2019,
      "Rus": 2020,
      "abo": 2021,
      "culture": 2022,
      "ints": 2023,
      "current": 2024,
      "avril": 2025,
      "veaux": 2026,
      "production": 2027,
      "April": 2028,
      "renfor": 2029,
      "36": 2030,
      "ned": 2031,
      "FOR": 2032,
      "èrement": 2033,
      "fav": 2034,
      "niveau": 2035,
      "way": 2036,
      "via": 2037,
      "gency": 2038,
      "ital": 2039,
      "évalu": 2040,
      "arrange": 2041,
      "territoire": 2042,
      "sol": 2043,
      "keep": 2044,
      "victi": 2045,
      "ière": 2046,
      "ager": 2047,
      "reco": 2048,
      "nais": 2049,
      "medi": 2050,
      "exist": 2051,
      "organes": 2052,
      "pects": 2053,
      "ultural": 2054,
      "distribu": 2055,
      "isla": 2056,
      "monde": 2057,
      "achie": 2058,
      "tenant": 2059,
      "44": 2060,
      "ancement": 2061,
      "grand": 2062,
      "défin": 2063,
      "Aus": 2064,
      "san": 2065,
      "invol": 2066,
      "ris": 2067,
      "déclar": 2068,
      "cru": 2069,
      "Article": 2070,
      "Qu": 2071,
      "individu": 2072,
      "pare": 2073,
      "refuge": 2074,
      "considered": 2075,
      "ouvernements": 2076,
      "Law": 2077,
      "lieu": 2078,
      "éle": 2079,
      "later": 2080,
      "meetings": 2081,
      "before": 2082,
      "adoption": 2083,
      "appel": 2084,
      "Adminis": 2085,
      "experts": 2086,
      "alia": 2087,
      "service": 2088,
      "technical": 2089,
      "atri": 2090,
      "serait": 2091,
      "PNU": 2092,
      "self": 2093,
      "38": 2094,
      "entes": 2095,
      "érieur": 2096,
      "legal": 2097,
      "islation": 2098,
      "Mal": 2099,
      "Chair": 2100,
      "children": 2101,
      "Accord": 2102,
      "dépend": 2103,
      "consultations": 2104,
      "documents": 2105,
      "policy": 2106,
      "Pre": 2107,
      "forme": 2108,
      "AI": 2109,
      "temps": 2110,
      "satis": 2111,
      "about": 2112,
      "strengthen": 2113,
      "millions": 2114,
      "ger": 2115,
      "paration": 2116,
      "acte": 2117,
      "Work": 2118,
      "proposed": 2119,
      "prise": 2120,
      "PRES": 2121,
      "ier": 2122,
      "prison": 2123,
      "groupes": 2124,
      "since": 2125,
      "ported": 2126,
      "égoci": 2127,
      "certains": 2128,
      "Governments": 2129,
      "duction": 2130,
      "rab": 2131,
      "arme": 2132,
      "great": 2133,
      "37": 2134,
      "off": 2135,
      "Unis": 2136,
      "ana": 2137,
      "cu": 2138,
      "associ": 2139,
      "Dis": 2140,
      "cin": 2141,
      "aspects": 2142,
      "make": 2143,
      "rer": 2144,
      "exp": 2145,
      "ok": 2146,
      "sujet": 2147,
      "control": 2148,
      "statis": 2149,
      "armes": 2150,
      "local": 2151,
      "négoci": 2152,
      "rée": 2153,
      "év": 2154,
      "gouvernementales": 2155,
      "ings": 2156,
      "specific": 2157,
      "nationale": 2158,
      "concerning": 2159,
      "concerned": 2160,
      "anu": 2161,
      "anta": 2162,
      "34": 2163,
      "sieurs": 2164,
      "39": 2165,
      "lat": 2166,
      "problems": 2167,
      "among": 2168,
      "transition": 2169,
      "gouvernements": 2170,
      "olo": 2171,
      "résul": 2172,
      "Fed": 2173,
      "TER": 2174,
      "dures": 2175,
      "ession": 2176,
      "explo": 2177,
      "mars": 2178,
      "parat": 2179,
      "without": 2180,
      "second": 2181,
      "vou": 2182,
      "conven": 2183,
      "management": 2184,
      "aila": 2185,
      "eux": 2186,
      "mination": 2187,
      "peti": 2188,
      "after": 2189,
      "deci": 2190,
      "particularly": 2191,
      "hon": 2192,
      "quarante": 2193,
      "agencies": 2194,
      "fun": 2195,
      "compé": 2196,
      "32": 2197,
      "venant": 2198,
      "Yu": 2199,
      "depuis": 2200,
      "détermin": 2201,
      "quent": 2202,
      "March": 2203,
      "techniques": 2204,
      "ressed": 2205,
      "availa": 2206,
      "three": 2207,
      "érer": 2208,
      "acqu": 2209,
      "cice": 2210,
      "oy": 2211,
      "ordin": 2212,
      "estima": 2213,
      "ensemble": 2214,
      "Croati": 2215,
      "African": 2216,
      "goti": 2217,
      "justice": 2218,
      "VE": 2219,
      "cident": 2220,
      "priv": 2221,
      "moyens": 2222,
      "clé": 2223,
      "Sal": 2224,
      "Nor": 2225,
      "dy": 2226,
      "orig": 2227,
      "mark": 2228,
      "soient": 2229,
      "çon": 2230,
      "nécessaires": 2231,
      "VI": 2232,
      "issant": 2233,
      "lut": 2234,
      "identif": 2235,
      "ame": 2236,
      "lim": 2237,
      "nent": 2238,
      "joint": 2239,
      "idi": 2240,
      "exercice": 2241,
      "subjec": 2242,
      "Tr": 2243,
      "respond": 2244,
      "pra": 2245,
      "recommandations": 2246,
      "consulta": 2247,
      "relatives": 2248,
      "guer": 2249,
      "ele": 2250,
      "partment": 2251,
      "laquelle": 2252,
      "hel": 2253,
      "rug": 2254,
      "ase": 2255,
      "gues": 2256,
      "AP": 2257,
      "lections": 2258,
      "Yugosla": 2259,
      "democra": 2260,
      "section": 2261,
      "principes": 2262,
      "my": 2263,
      "recommendations": 2264,
      "mesure": 2265,
      "nuclé": 2266,
      "durable": 2267,
      "employ": 2268,
      "cam": 2269,
      "hen": 2270,
      "cha": 2271,
      "mandat": 2272,
      "gran": 2273,
      "ition": 2274,
      "ougosla": 2275,
      "diver": 2276,
      "keeping": 2277,
      "case": 2278,
      "gment": 2279,
      "exis": 2280,
      "delegation": 2281,
      "instruments": 2282,
      "organisation": 2283,
      "avant": 2284,
      "humanitarian": 2285,
      "Bure": 2286,
      "tow": 2287,
      "disp": 2288,
      "suppl": 2289,
      "quip": 2290,
      "zone": 2291,
      "various": 2292,
      "AB": 2293,
      "recher": 2294,
      "resolutions": 2295,
      "consideration": 2296,
      "ceux": 2297,
      "ry": 2298,
      "représentant": 2299,
      "représentants": 2300,
      "années": 2301,
      "illeurs": 2302,
      "nie": 2303,
      "when": 2304,
      "ologi": 2305,
      "former": 2306,
      "Je": 2307,
      "sector": 2308,
      "délégation": 2309,
      "gni": 2310,
      "arrangements": 2311,
      "besoins": 2312,
      "said": 2313,
      "données": 2314,
      "active": 2315,
      "sum": 2316,
      "full": 2317,
      "matéri": 2318,
      "soli": 2319,
      "état": 2320,
      "groups": 2321,
      "ITED": 2322,
      "ism": 2323,
      "emer": 2324,
      "based": 2325,
      "ety": 2326,
      "account": 2327,
      "intérê": 2328,
      "Ban": 2329,
      "bodies": 2330,
      "limit": 2331,
      "juridi": 2332,
      "visant": 2333,
      "own": 2334,
      "less": 2335,
      "UNITED": 2336,
      "Palestini": 2337,
      "ste": 2338,
      "ticles": 2339,
      "ître": 2340,
      "eur": 2341,
      "devraient": 2342,
      "bure": 2343,
      "sent": 2344,
      "partement": 2345,
      "GEN": 2346,
      "cos": 2347,
      "rier": 2348,
      "given": 2349,
      "cing": 2350,
      "above": 2351,
      "each": 2352,
      "militaires": 2353,
      "recent": 2354,
      "determin": 2355,
      "asses": 2356,
      "peuvent": 2357,
      "Cet": 2358,
      "cost": 2359,
      "Bureau": 2360,
      "très": 2361,
      "pouvoir": 2362,
      "recogni": 2363,
      "obligations": 2364,
      "submitted": 2365,
      "build": 2366,
      "grès": 2367,
      "solution": 2368,
      "representative": 2369,
      "grow": 2370,
      "façon": 2371,
      "indic": 2372,
      "communications": 2373,
      "60": 2374,
      "examiner": 2375,
      "41": 2376,
      "upon": 2377,
      "airs": 2378,
      "education": 2379,
      "required": 2380,
      "Af": 2381,
      "100": 2382,
      "eli": 2383,
      "hal": 2384,
      "National": 2385,
      "pt": 2386,
      "jours": 2387,
      "IL": 2388,
      "ss": 2389,
      "sug": 2390,
      "Agenda": 2391,
      "ba": 2392,
      "constitution": 2393,
      "ché": 2394,
      "ception": 2395,
      "progress": 2396,
      "negoti": 2397,
      "cases": 2398,
      "fully": 2399,
      "tern": 2400,
      "TO": 2401,
      "ll": 2402,
      "Ter": 2403,
      "Department": 2404,
      "dated": 2405,
      "ck": 2406,
      "1er": 2407,
      "Col": 2408,
      "future": 2409,
      "Fond": 2410,
      "Cor": 2411,
      "donc": 2412,
      "Arab": 2413,
      "internationaux": 2414,
      "renforcer": 2415,
      "fig": 2416,
      "isme": 2417,
      "49": 2418,
      "ulation": 2419,
      "42": 2420,
      "selon": 2421,
      "Fin": 2422,
      "AS": 2423,
      "isés": 2424,
      "ack": 2425,
      "conséqu": 2426,
      "mois": 2427,
      "création": 2428,
      "day": 2429,
      "agric": 2430,
      "forty": 2431,
      "Amér": 2432,
      "seront": 2433,
      "annexe": 2434,
      "notre": 2435,
      "résolutions": 2436,
      "seu": 2437,
      "lead": 2438,
      "grou": 2439,
      "Chairman": 2440,
      "augment": 2441,
      "responsabil": 2442,
      "cées": 2443,
      "itor": 2444,
      "operations": 2445,
      "contribution": 2446,
      "él": 2447,
      "continued": 2448,
      "PRO": 2449,
      "requested": 2450,
      "Ces": 2451,
      "opération": 2452,
      "available": 2453,
      "refer": 2454,
      "appr": 2455,
      "resul": 2456,
      "Rec": 2457,
      "gal": 2458,
      "PAR": 2459,
      "année": 2460,
      "domaines": 2461,
      "1988": 2462,
      "COMM": 2463,
      "SION": 2464,
      "annu": 2465,
      "her": 2466,
      "ification": 2467,
      "Amérique": 2468,
      "($": 2469,
      "lin": 2470,
      "Action": 2471,
      "establishment": 2472,
      "Déclaration": 2473,
      "inten": 2474,
      "43": 2475,
      "EX": 2476,
      "lib": 2477,
      "Division": 2478,
      "ort": 2479,
      "forcement": 2480,
      "PO": 2481,
      "due": 2482,
      "ches": 2483,
      "traite": 2484,
      "sc": 2485,
      "modi": 2486,
      "relating": 2487,
      "quê": 2488,
      "operation": 2489,
      "ège": 2490,
      "divers": 2491,
      "UNDP": 2492,
      "urgence": 2493,
      "zones": 2494,
      "trop": 2495,
      "global": 2496,
      "pourrait": 2497,
      "envis": 2498,
      "bunal": 2499,
      "Bosnie": 2500,
      "peuples": 2501,
      "ève": 2502,
      "Fonds": 2503,
      "Fund": 2504,
      "ara": 2505,
      "actions": 2506,
      "Res": 2507,
      "antes": 2508,
      "indus": 2509,
      "ced": 2510,
      "veill": 2511,
      "présente": 2512,
      "dou": 2513,
      "colon": 2514,
      "déf": 2515,
      "règlement": 2516,
      "sais": 2517,
      "ird": 2518,
      "issue": 2519,
      "SEC": 2520,
      "ask": 2521,
      "authorities": 2522,
      "articles": 2523,
      "pén": 2524,
      "ho": 2525,
      "reedom": 2526,
      "LIS": 2527,
      "plusieurs": 2528,
      "arb": 2529,
      "trade": 2530,
      "Fr": 2531,
      "soulig": 2532,
      "month": 2533,
      "cés": 2534,
      "objectifs": 2535,
      "nouveau": 2536,
      "isées": 2537,
      "lande": 2538,
      "official": 2539,
      "Let": 2540,
      "rig": 2541,
      "inti": 2542,
      "tres": 2543,
      "ough": 2544,
      "used": 2545,
      "tour": 2546,
      "costs": 2547,
      "sement": 2548,
      "agreement": 2549,
      "Working": 2550,
      "écan": 2551,
      "Département": 2552,
      "autorités": 2553,
      "guerre": 2554,
      "demandé": 2555,
      "apport": 2556,
      "CH": 2557,
      "vier": 2558,
      "déclaration": 2559,
      "tiz": 2560,
      "nuclear": 2561,
      "art": 2562,
      "sett": 2563,
      "mater": 2564,
      "Institu": 2565,
      "Represent": 2566,
      "PNUD": 2567,
      "manière": 2568,
      "décidé": 2569,
      "arma": 2570,
      "erb": 2571,
      "needs": 2572,
      "fron": 2573,
      "itième": 2574,
      "ended": 2575,
      "80": 2576,
      "requirements": 2577,
      "ayant": 2578,
      "sto": 2579,
      "alité": 2580,
      "pé": 2581,
      "collec": 2582,
      "rég": 2583,
      "York": 2584,
      "There": 2585,
      "nécessaire": 2586,
      "Janu": 2587,
      "January": 2588,
      "première": 2589,
      "health": 2590,
      "hand": 2591,
      "ada": 2592,
      "contrôle": 2593,
      "ighth": 2594,
      "tenue": 2595,
      "infr": 2596,
      "direct": 2597,
      "groupe": 2598,
      "ious": 2599,
      "nationales": 2600,
      "Declar": 2601,
      "contained": 2602,
      "nouvelles": 2603,
      "suiv": 2604,
      "ource": 2605,
      "OU": 2606,
      "alie": 2607,
      "increase": 2608,
      "Une": 2609,
      "huitième": 2610,
      "naiss": 2611,
      "mécan": 2612,
      "sal": 2613,
      "lateral": 2614,
      "working": 2615,
      "raison": 2616,
      "conne": 2617,
      "projects": 2618,
      "dence": 2619,
      "décisions": 2620,
      "Aff": 2621,
      "Declaration": 2622,
      "har": 2623,
      "ately": 2624,
      "offici": 2625,
      "term": 2626,
      "efore": 2627,
      "exem": 2628,
      "representatives": 2629,
      "judici": 2630,
      "additional": 2631,
      "abs": 2632,
      "construction": 2633,
      "éra": 2634,
      "Mon": 2635,
      "Charte": 2636,
      "santé": 2637,
      "vous": 2638,
      "acts": 2639,
      "ys": 2640,
      "Tur": 2641,
      "integr": 2642,
      "era": 2643,
      "relative": 2644,
      "emplo": 2645,
      "fonctionn": 2646,
      "intro": 2647,
      "ath": 2648,
      "face": 2649,
      "janvier": 2650,
      "Charter": 2651,
      "conflict": 2652,
      "institution": 2653,
      "MAN": 2654,
      "Cette": 2655,
      "500": 2656,
      "exécution": 2657,
      "trial": 2658,
      "draw": 2659,
      "road": 2660,
      "progrès": 2661,
      "entit": 2662,
      "ente": 2663,
      "Yugoslavia": 2664,
      "portun": 2665,
      "trait": 2666,
      "wish": 2667,
      "hab": 2668,
      "postes": 2669,
      "présenté": 2670,
      "AM": 2671,
      "drug": 2672,
      "differ": 2673,
      "jà": 2674,
      "vig": 2675,
      "real": 2676,
      "ily": 2677,
      "orient": 2678,
      "félic": 2679,
      "sever": 2680,
      "nic": 2681,
      "changes": 2682,
      "prepare": 2683,
      "eighth": 2684,
      "faut": 2685,
      "tats": 2686,
      "déjà": 2687,
      "gime": 2688,
      "uring": 2689,
      "Yougosla": 2690,
      "principles": 2691,
      "fique": 2692,
      "préoccup": 2693,
      "itable": 2694,
      "efficac": 2695,
      "include": 2696,
      "difficult": 2697,
      "favor": 2698,
      "pay": 2699,
      "éducation": 2700,
      "statement": 2701,
      "Yougoslavie": 2702,
      "amoun": 2703,
      "lutte": 2704,
      "ions": 2705,
      "adv": 2706,
      "ieux": 2707,
      "European": 2708,
      "DA": 2709,
      "éné": 2710,
      "peoples": 2711,
      "spec": 2712,
      "lated": 2713,
      "vador": 2714,
      "200": 2715,
      "approach": 2716,
      "Can": 2717,
      "With": 2718,
      "like": 2719,
      "auprès": 2720,
      "genous": 2721,
      "susta": 2722,
      "assess": 2723,
      "peuple": 2724,
      "CT": 2725,
      "étant": 2726,
      "CS": 2727,
      "remain": 2728,
      "nouveaux": 2729,
      "fonds": 2730,
      "cover": 2731,
      "ENG": 2732,
      "towards": 2733,
      "Secretariat": 2734,
      "afr": 2735,
      "ext": 2736,
      "strate": 2737,
      "55": 2738,
      "destin": 2739,
      "fondament": 2740,
      "réunions": 2741,
      "Iran": 2742,
      "devant": 2743,
      "territoires": 2744,
      "equip": 2745,
      "received": 2746,
      "Bosnia": 2747,
      "itre": 2748,
      "Pu": 2749,
      "opportun": 2750,
      "Elle": 2751,
      "Territ": 2752,
      "mobil": 2753,
      "expressed": 2754,
      "centres": 2755,
      "grande": 2756,
      "secteur": 2757,
      "Camb": 2758,
      "side": 2759,
      "cht": 2760,
      "anda": 2761,
      "occas": 2762,
      "communication": 2763,
      "istes": 2764,
      "produc": 2765,
      "impos": 2766,
      "request": 2767,
      "enseig": 2768,
      "means": 2769,
      "visory": 2770,
      "mig": 2771,
      "omb": 2772,
      "tées": 2773,
      "populations": 2774,
      "formes": 2775,
      "PE": 2776,
      "administrative": 2777,
      "adress": 2778,
      "Bel": 2779,
      "indépend": 2780,
      "tée": 2781,
      "sustain": 2782,
      "reç": 2783,
      "sian": 2784,
      "therefore": 2785,
      "econom": 2786,
      "condu": 2787,
      "enquê": 2788,
      "intéress": 2789,
      "policies": 2790,
      "Ap": 2791,
      "bour": 2792,
      "allow": 2793,
      "LISH": 2794,
      "béné": 2795,
      "tification": 2796,
      "90": 2797,
      "signi": 2798,
      "entitled": 2799,
      "ya": 2800,
      "deb": 2801,
      "monitor": 2802,
      "know": 2803,
      "El": 2804,
      "lie": 2805,
      "Secrétariat": 2806,
      "alog": 2807,
      "hether": 2808,
      "practi": 2809,
      "souh": 2810,
      "humanitaire": 2811,
      "ater": 2812,
      "ciale": 2813,
      "ANG": 2814,
      "uti": 2815,
      "noted": 2816,
      "chool": 2817,
      "clas": 2818,
      "freedom": 2819,
      "objet": 2820,
      "ienne": 2821,
      "déc": 2822,
      "Austr": 2823,
      "armement": 2824,
      "pertin": 2825,
      "context": 2826,
      "ready": 2827,
      "sen": 2828,
      "isé": 2829,
      "présentant": 2830,
      "fau": 2831,
      "Service": 2832,
      "ling": 2833,
      "subject": 2834,
      "endu": 2835,
      "treat": 2836,
      "chaque": 2837,
      "charg": 2838,
      "structure": 2839,
      "However": 2840,
      "issance": 2841,
      "Univers": 2842,
      "ption": 2843,
      "Court": 2844,
      "Union": 2845,
      "decided": 2846,
      "68": 2847,
      "serve": 2848,
      "torture": 2849,
      "étude": 2850,
      "ecutive": 2851,
      "just": 2852,
      "America": 2853,
      "armament": 2854,
      "opin": 2855,
      "ateur": 2856,
      "savoir": 2857,
      "nelles": 2858,
      "certaines": 2859,
      "...": 2860,
      "cont": 2861,
      "regis": 2862,
      "alogue": 2863,
      "stratég": 2864,
      "urn": 2865,
      "aw": 2866,
      "party": 2867,
      "whether": 2868,
      "xim": 2869,
      "while": 2870,
      "connection": 2871,
      "enh": 2872,
      "permettre": 2873,
      "diction": 2874,
      "addressed": 2875,
      "you": 2876,
      "ENGLISH": 2877,
      "mall": 2878,
      "opé": 2879,
      "atte": 2880,
      "half": 2881,
      "nécessité": 2882,
      "Canada": 2883,
      "install": 2884,
      "They": 2885,
      "nelle": 2886,
      "equipment": 2887,
      "cipe": 2888,
      "appar": 2889,
      "mn": 2890,
      "weap": 2891,
      "result": 2892,
      "Proto": 2893,
      "éch": 2894,
      "Inde": 2895,
      "truct": 2896,
      "fais": 2897,
      "hol": 2898,
      "correspond": 2899,
      "ERAL": 2900,
      "bru": 2901,
      "mation": 2902,
      "quelles": 2903,
      "kra": 2904,
      "seig": 2905,
      "taking": 2906,
      "mondial": 2907,
      "deuxième": 2908,
      "élé": 2909,
      "reas": 2910,
      "head": 2911,
      "final": 2912,
      "autocht": 2913,
      "Pacte": 2914,
      "situations": 2915,
      "Representative": 2916,
      "jusqu": 2917,
      "icial": 2918,
      "estig": 2919,
      "capacity": 2920,
      "serious": 2921,
      "recherche": 2922,
      "stances": 2923,
      "angla": 2924,
      "Fe": 2925,
      "aider": 2926,
      "emb": 2927,
      "sociale": 2928,
      "quels": 2929,
      "frame": 2930,
      "nouvelle": 2931,
      "moyen": 2932,
      "vine": 2933,
      "pleine": 2934,
      "57": 2935,
      "vertu": 2936,
      "Affairs": 2937,
      "intention": 2938,
      "donné": 2939,
      "thern": 2940,
      "premier": 2941,
      "ama": 2942,
      "laire": 2943,
      "tul": 2944,
      "eral": 2945,
      "commercial": 2946,
      "building": 2947,
      "Rapport": 2948,
      "earch": 2949,
      ".,": 2950,
      "refugees": 2951,
      "Cu": 2952,
      "vina": 2953,
      "ator": 2954,
      "Covenant": 2955,
      "améliorer": 2956,
      "tho": 2957,
      "lected": 2958,
      "GENERAL": 2959,
      "600": 2960,
      "Herz": 2961,
      "mic": 2962,
      "Herze": 2963,
      "chargé": 2964,
      "égovine": 2965,
      "Herzégovine": 2966,
      "hic": 2967,
      "lands": 2968,
      "Li": 2969,
      "infor": 2970,
      "Sup": 2971,
      "ton": 2972,
      "intitul": 2973,
      "Herzego": 2974,
      "RO": 2975,
      "ets": 2976,
      "Herzegovina": 2977,
      "terme": 2978,
      "désarmement": 2979,
      "renseig": 2980,
      "ability": 2981,
      "bon": 2982,
      "transport": 2983,
      "vote": 2984,
      "enter": 2985,
      "technology": 2986,
      "sanctions": 2987,
      "arante": 2988,
      "state": 2989,
      "violation": 2990,
      "agu": 2991,
      "what": 2992,
      "actuellement": 2993,
      "Salvador": 2994,
      "suivre": 2995,
      "struct": 2996,
      "bal": 2997,
      "Sous": 2998,
      "mandate": 2999,
      "Indi": 3000,
      "placed": 3001,
      "arr": 3002,
      "secré": 3003,
      "évaluation": 3004,
      "1987": 3005,
      "caract": 3006,
      "aving": 3007,
      "nucléaires": 3008,
      "developed": 3009,
      "trou": 3010,
      "Paci": 3011,
      "enseignement": 3012,
      "Report": 3013,
      "supplément": 3014,
      "Wh": 3015,
      "arri": 3016,
      "making": 3017,
      "Az": 3018,
      "mp": 3019,
      "Force": 3020,
      "deal": 3021,
      "sor": 3022,
      "vient": 3023,
      "IM": 3024,
      "bruary": 3025,
      "February": 3026,
      "vrier": 3027,
      "europé": 3028,
      "dialogue": 3029,
      "territory": 3030,
      "février": 3031,
      "efficace": 3032,
      "points": 3033,
      "responsibility": 3034,
      "central": 3035,
      "aged": 3036,
      "ghan": 3037,
      "close": 3038,
      "Board": 3039,
      "matériel": 3040,
      "status": 3041,
      "because": 3042,
      "sources": 3043,
      "Peace": 3044,
      "however": 3045,
      "conflit": 3046,
      "souhait": 3047,
      "Serb": 3048,
      "avanta": 3049,
      "problème": 3050,
      "celles": 3051,
      "sex": 3052,
      "CSCE": 3053,
      "might": 3054,
      "lines": 3055,
      "pursu": 3056,
      "ethnic": 3057,
      "tar": 3058,
      "régionales": 3059,
      "examiné": 3060,
      "Permanent": 3061,
      "framework": 3062,
      "dispos": 3063,
      "US": 3064,
      "particulièrement": 3065,
      "donner": 3066,
      "theid": 3067,
      "partheid": 3068,
      "mag": 3069,
      "organization": 3070,
      "univers": 3071,
      "celui": 3072,
      "existing": 3073,
      "post": 3074,
      "utilisation": 3075,
      "répon": 3076,
      "tenti": 3077,
      "promote": 3078,
      "agreed": 3079,
      "rapide": 3080,
      "ethni": 3081,
      "renseignements": 3082,
      "ends": 3083,
      "decisions": 3084,
      "autochtones": 3085,
      "comb": 3086,
      "ouvoir": 3087,
      "ises": 3088,
      "Environ": 3089,
      "These": 3090,
      "77": 3091,
      "Car": 3092,
      "financement": 3093,
      "open": 3094,
      "independ": 3095,
      "pau": 3096,
      "Code": 3097,
      "issent": 3098,
      "tie": 3099,
      "fédé": 3100,
      "celle": 3101,
      "mechan": 3102,
      "dée": 3103,
      "impact": 3104,
      "armed": 3105,
      "civi": 3106,
      "Représentant": 3107,
      "58": 3108,
      "liberté": 3109,
      "mains": 3110,
      "nés": 3111,
      "till": 3112,
      "Poli": 3113,
      "provis": 3114,
      "Rev": 3115,
      "ira": 3116,
      "fonctionnaires": 3117,
      "occasion": 3118,
      "51": 3119,
      "économie": 3120,
      "exemple": 3121,
      "régional": 3122,
      "taux": 3123,
      "indigenous": 3124,
      "environmental": 3125,
      "commerce": 3126,
      "Ukra": 3127,
      "carri": 3128,
      "ograph": 3129,
      "prehen": 3130,
      "plans": 3131,
      "régions": 3132,
      "250": 3133,
      "secret": 3134,
      "fonctions": 3135,
      "reported": 3136,
      "life": 3137,
      "mises": 3138,
      "étudi": 3139,
      "56": 3140,
      "help": 3141,
      "négociations": 3142,
      "pow": 3143,
      "material": 3144,
      "potenti": 3145,
      "hist": 3146,
      "cat": 3147,
      "ache": 3148,
      "bénéfic": 3149,
      "ize": 3150,
      "Palestine": 3151,
      "foreign": 3152,
      "investig": 3153,
      "fice": 3154,
      "faction": 3155,
      "ensus": 3156,
      "iture": 3157,
      "zed": 3158,
      "Jap": 3159,
      "consultatif": 3160,
      "terms": 3161,
      "vious": 3162,
      "cit": 3163,
      "personne": 3164,
      "fournir": 3165,
      "effort": 3166,
      "militaire": 3167,
      "data": 3168,
      "especial": 3169,
      "crit": 3170,
      "résultats": 3171,
      "Plan": 3172,
      "small": 3173,
      "especially": 3174,
      "tics": 3175,
      "fave": 3176,
      "suffis": 3177,
      "porte": 3178,
      "tenance": 3179,
      "sia": 3180,
      "called": 3181,
      "ness": 3182,
      "répond": 3183,
      "Palestinian": 3184,
      "consac": 3185,
      "ying": 3186,
      "LAIS": 3187,
      "produits": 3188,
      "free": 3189,
      "ix": 3190,
      "observations": 3191,
      "school": 3192,
      "IDENT": 3193,
      "effectu": 3194,
      "regular": 3195,
      "éléments": 3196,
      "ANGLAIS": 3197,
      "faveur": 3198,
      "already": 3199,
      "faudra": 3200,
      "Jo": 3201,
      "exprim": 3202,
      "fier": 3203,
      "PRESIDENT": 3204,
      "light": 3205,
      "dipl": 3206,
      "terr": 3207,
      "TS": 3208,
      "accro": 3209,
      "quant": 3210,
      "problem": 3211,
      "actes": 3212,
      "OS": 3213,
      "accords": 3214,
      "coordin": 3215,
      "titude": 3216,
      "CEF": 3217,
      "access": 3218,
      "Act": 3219,
      "call": 3220,
      "principe": 3221,
      "promouvoir": 3222,
      "growth": 3223,
      "France": 3224,
      "CER": 3225,
      "letter": 3226,
      "third": 3227,
      "signific": 3228,
      "nombreux": 3229,
      "seulement": 3230,
      "scientif": 3231,
      "even": 3232,
      "rées": 3233,
      "formul": 3234,
      "mom": 3235,
      "sti": 3236,
      "UNHCR": 3237,
      "latér": 3238,
      "success": 3239,
      "applic": 3240,
      "emphas": 3241,
      "Gen": 3242,
      "prehensive": 3243,
      "reach": 3244,
      "victimes": 3245,
      "ailleurs": 3246,
      "profession": 3247,
      "neu": 3248,
      "59": 3249,
      "conse": 3250,
      "établir": 3251,
      "Ne": 3252,
      "élar": 3253,
      "dre": 3254,
      "famille": 3255,
      "vale": 3256,
      "thod": 3257,
      "stated": 3258,
      "cultural": 3259,
      "restric": 3260,
      "créer": 3261,
      "53": 3262,
      "atre": 3263,
      "Ab": 3264,
      "présenter": 3265,
      "suivi": 3266,
      "satisfaction": 3267,
      "arab": 3268,
      "tel": 3269,
      "did": 3270,
      "oi": 3271,
      "design": 3272,
      "ords": 3273,
      "Executive": 3274,
      "humain": 3275,
      "Minister": 3276,
      "Environment": 3277,
      "rem": 3278,
      "ciper": 3279,
      "racial": 3280,
      "sessions": 3281,
      "still": 3282,
      "Peop": 3283,
      "rev": 3284,
      "suivant": 3285,
      "increasing": 3286,
      "précé": 3287,
      "Afghan": 3288,
      "Cuba": 3289,
      "lettre": 3290,
      "sud": 3291,
      "him": 3292,
      "sing": 3293,
      "spéciale": 3294,
      "American": 3295,
      "deta": 3296,
      "sect": 3297,
      "far": 3298,
      "indiqué": 3299,
      "arbit": 3300,
      "Azerb": 3301,
      "gola": 3302,
      "facilit": 3303,
      "Gene": 3304,
      "assist": 3305,
      "conclusions": 3306,
      "fied": 3307,
      "gement": 3308,
      "legislation": 3309,
      "threat": 3310,
      "participer": 3311,
      "budgéta": 3312,
      "exception": 3313,
      "exig": 3314,
      "EA": 3315,
      "cès": 3316,
      "chef": 3317,
      "aucune": 3318,
      "régionaux": 3319,
      "levels": 3320,
      "avis": 3321,
      "respective": 3322,
      "gie": 3323,
      "Geneva": 3324,
      "manif": 3325,
      "dang": 3326,
      "sis": 3327,
      "proper": 3328,
      "prend": 3329,
      "hé": 3330,
      "ctu": 3331,
      "entra": 3332,
      "DI": 3333,
      "SR": 3334,
      "études": 3335,
      "estimated": 3336,
      "moment": 3337,
      "ili": 3338,
      "aurait": 3339,
      "participants": 3340,
      "phas": 3341,
      "coordon": 3342,
      "démocratique": 3343,
      "Ou": 3344,
      "posts": 3345,
      "procédure": 3346,
      "tient": 3347,
      "beg": 3348,
      "course": 3349,
      "équi": 3350,
      "quate": 3351,
      "Ukraine": 3352,
      "diplom": 3353,
      "intérieur": 3354,
      "rules": 3355,
      "arres": 3356,
      "seraient": 3357,
      "complex": 3358,
      "initiatives": 3359,
      "52": 3360,
      "tâ": 3361,
      "secrétariat": 3362,
      "inves": 3363,
      "increased": 3364,
      "diverses": 3365,
      "naissance": 3366,
      "visions": 3367,
      "Genève": 3368,
      "belie": 3369,
      "66": 3370,
      "consensus": 3371,
      "odi": 3372,
      "opinion": 3373,
      "radi": 3374,
      "entreprises": 3375,
      "intérêt": 3376,
      "several": 3377,
      "pression": 3378,
      "family": 3379,
      "ben": 3380,
      "cise": 3381,
      "sugges": 3382,
      "provisoire": 3383,
      "prévu": 3384,
      "aj": 3385,
      "Egy": 3386,
      "publications": 3387,
      "regarding": 3388,
      "raciale": 3389,
      "attach": 3390,
      "distribution": 3391,
      "project": 3392,
      "science": 3393,
      "continuer": 3394,
      "FR": 3395,
      "ency": 3396,
      "condition": 3397,
      "accès": 3398,
      "UNICEF": 3399,
      "prepared": 3400,
      "exten": 3401,
      "ulture": 3402,
      "financières": 3403,
      "faits": 3404,
      "forms": 3405,
      "Man": 3406,
      "statut": 3407,
      "LES": 3408,
      "responsible": 3409,
      "monitoring": 3410,
      "tenus": 3411,
      "tradition": 3412,
      "établissement": 3413,
      "cli": 3414,
      "ined": 3415,
      "Ques": 3416,
      "renforcement": 3417,
      "appliquer": 3418,
      "ende": 3419,
      "Pol": 3420,
      "Te": 3421,
      "ennes": 3422,
      "habit": 3423,
      "verse": 3424,
      "expend": 3425,
      "experi": 3426,
      "fix": 3427,
      "Administra": 3428,
      "vised": 3429,
      "weapons": 3430,
      "offer": 3431,
      "comprehensive": 3432,
      "pren": 3433,
      "quarters": 3434,
      "Director": 3435,
      "terror": 3436,
      "obst": 3437,
      "eded": 3438,
      "East": 3439,
      "space": 3440,
      "solid": 3441,
      "wide": 3442,
      "unis": 3443,
      "mala": 3444,
      "Russian": 3445,
      "EC": 3446,
      "véri": 3447,
      "alors": 3448,
      "office": 3449,
      "mod": 3450,
      "ways": 3451,
      "pratique": 3452,
      "alleg": 3453,
      "centre": 3454,
      "emploi": 3455,
      "interes": 3456,
      "defin": 3457,
      "CONF": 3458,
      "Women": 3459,
      "vices": 3460,
      "composition": 3461,
      "recours": 3462,
      "collaboration": 3463,
      "ground": 3464,
      "OL": 3465,
      "fai": 3466,
      "Associ": 3467,
      "ueur": 3468,
      "took": 3469,
      "behalf": 3470,
      "type": 3471,
      "profon": 3472,
      "AO": 3473,
      "trouver": 3474,
      "onom": 3475,
      "propositions": 3476,
      "amount": 3477,
      "concep": 3478,
      "1985": 3479,
      "emergency": 3480,
      "Sp": 3481,
      "prê": 3482,
      "put": 3483,
      "Parties": 3484,
      "every": 3485,
      "study": 3486,
      "line": 3487,
      "92": 3488,
      "paci": 3489,
      "compli": 3490,
      "400": 3491,
      "matter": 3492,
      "juridique": 3493,
      "apartheid": 3494,
      "Nig": 3495,
      "pes": 3496,
      "exclu": 3497,
      "gn": 3498,
      "laires": 3499,
      "pleinement": 3500,
      "foc": 3501,
      "obligation": 3502,
      "figur": 3503,
      "planification": 3504,
      "métho": 3505,
      "Mme": 3506,
      "destru": 3507,
      "suit": 3508,
      "sustainable": 3509,
      "export": 3510,
      "nos": 3511,
      "54": 3512,
      "responsabilité": 3513,
      "poste": 3514,
      "itures": 3515,
      "icaine": 3516,
      "good": 3517,
      "paratory": 3518,
      "confi": 3519,
      "garanti": 3520,
      "alestini": 3521,
      "palestini": 3522,
      "standing": 3523,
      "coût": 3524,
      "PA": 3525,
      "bienni": 3526,
      "carried": 3527,
      "crime": 3528,
      "telle": 3529,
      "conflits": 3530,
      "Information": 3531,
      "planning": 3532,
      "investis": 3533,
      "gré": 3534,
      "nels": 3535,
      "akistan": 3536,
      "Bur": 3537,
      "extérie": 3538,
      "introdu": 3539,
      "den": 3540,
      "invest": 3541,
      "élabor": 3542,
      "là": 3543,
      "1986": 3544,
      "obstac": 3545,
      "agreements": 3546,
      "communi": 3547,
      "relatifs": 3548,
      "benef": 3549,
      "prote": 3550,
      "drogues": 3551,
      "address": 3552,
      "elon": 3553,
      "Advisory": 3554,
      "infras": 3555,
      "atr": 3556,
      "ismes": 3557,
      "pass": 3558,
      "Fé": 3559,
      "PRONU": 3560,
      "suivants": 3561,
      "fins": 3562,
      "porter": 3563,
      "Agree": 3564,
      "civils": 3565,
      "Amb": 3566,
      "mas": 3567,
      "care": 3568,
      "arrê": 3569,
      "toujours": 3570,
      "negotiations": 3571,
      "900": 3572,
      "maintenance": 3573,
      "prévention": 3574,
      "INTER": 3575,
      "Ob": 3576,
      "prov": 3577,
      "cole": 3578,
      "procedures": 3579,
      "compos": 3580,
      "QUES": 3581,
      "tels": 3582,
      "objectives": 3583,
      "ront": 3584,
      "pourraient": 3585,
      "appuy": 3586,
      "Comme": 3587,
      "publication": 3588,
      "found": 3589,
      "quatre": 3590,
      "illic": 3591,
      "villa": 3592,
      "charge": 3593,
      "POR": 3594,
      "Tou": 3595,
      "water": 3596,
      "mate": 3597,
      "Direc": 3598,
      "XX": 3599,
      "prévues": 3600,
      "Est": 3601,
      "Ils": 3602,
      "300": 3603,
      "délégations": 3604,
      "élections": 3605,
      "anced": 3606,
      "proposals": 3607,
      "rédu": 3608,
      "dération": 3609,
      "Federation": 3610,
      "67": 3611,
      "SU": 3612,
      "ole": 3613,
      "issements": 3614,
      "lection": 3615,
      "Lib": 3616,
      "habil": 3617,
      "éner": 3618,
      "GAN": 3619,
      "sociaux": 3620,
      "amental": 3621,
      "Communauté": 3622,
      "Bul": 3623,
      "mieux": 3624,
      "alloc": 3625,
      "Nam": 3626,
      "anci": 3627,
      "haut": 3628,
      "Angola": 3629,
      "Ministre": 3630,
      "equal": 3631,
      "otal": 3632,
      "crimes": 3633,
      "inspe": 3634,
      "criminal": 3635,
      "taining": 3636,
      "adressée": 3637,
      "Afghanistan": 3638,
      "efficacité": 3639,
      "PER": 3640,
      "private": 3641,
      "Bank": 3642,
      "tur": 3643,
      "ja": 3644,
      "territor": 3645,
      "ression": 3646,
      "experience": 3647,
      "cum": 3648,
      "rain": 3649,
      "Sw": 3650,
      "ked": 3651,
      "autonom": 3652,
      "included": 3653,
      "offices": 3654,
      "anie": 3655,
      "Services": 3656,
      "Docu": 3657,
      "ète": 3658,
      "relatif": 3659,
      "dispens": 3660,
      "VII": 3661,
      "expéri": 3662,
      "sistance": 3663,
      "minorités": 3664,
      "vigueur": 3665,
      "different": 3666,
      "seven": 3667,
      "initiative": 3668,
      "deploy": 3669,
      "impl": 3670,
      "hip": 3671,
      "dirig": 3672,
      "previous": 3673,
      "delegations": 3674,
      "Annex": 3675,
      "Cent": 3676,
      "inci": 3677,
      "minist": 3678,
      "parts": 3679,
      "société": 3680,
      "My": 3681,
      "adap": 3682,
      "common": 3683,
      "matters": 3684,
      "integration": 3685,
      "confir": 3686,
      "response": 3687,
      "faciliter": 3688,
      "technologi": 3689,
      "éraux": 3690,
      "déta": 3691,
      "Mex": 3692,
      "Pakistan": 3693,
      "troisième": 3694,
      "Total": 3695,
      "ordinaire": 3696,
      "Other": 3697,
      "ORGAN": 3698,
      "déclaré": 3699,
      "élaboration": 3700,
      "observateurs": 3701,
      "purpose": 3702,
      "uration": 3703,
      "besoin": 3704,
      "rale": 3705,
      "vements": 3706,
      "immedi": 3707,
      "Fédération": 3708,
      "developments": 3709,
      "strengthening": 3710,
      "Israel": 3711,
      "give": 3712,
      "distric": 3713,
      "aucun": 3714,
      "aiti": 3715,
      "cili": 3716,
      "1980": 3717,
      "involved": 3718,
      "late": 3719,
      "last": 3720,
      "positive": 3721,
      "aliment": 3722,
      "months": 3723,
      "restruct": 3724,
      "biennal": 3725,
      "Tri": 3726,
      "langu": 3727,
      "Chap": 3728,
      "MB": 3729,
      "log": 3730,
      "législation": 3731,
      "guide": 3732,
      "révis": 3733,
      "eau": 3734,
      "subsi": 3735,
      "itaires": 3736,
      "basic": 3737,
      "Mont": 3738,
      "fundamental": 3739,
      "compét": 3740,
      "past": 3741,
      "power": 3742,
      "CERD": 3743,
      "Nic": 3744,
      "sist": 3745,
      "Under": 3746,
      "insta": 3747,
      "example": 3748,
      "datée": 3749,
      "supplémentaires": 3750,
      "chapitre": 3751,
      "atrième": 3752,
      "évolution": 3753,
      "Fore": 3754,
      "principle": 3755,
      "enfant": 3756,
      "intégration": 3757,
      "Jus": 3758,
      "preci": 3759,
      "pouv": 3760,
      "NG": 3761,
      "Forty": 3762,
      "augmentation": 3763,
      "mécanismes": 3764,
      "citiz": 3765,
      "Not": 3766,
      "referred": 3767,
      "Russie": 3768,
      "Treat": 3769,
      "venu": 3770,
      "Gaz": 3771,
      "systems": 3772,
      "Federal": 3773,
      "déploy": 3774,
      "interest": 3775,
      "préparat": 3776,
      "63": 3777,
      "73": 3778,
      "hib": 3779,
      "possibilité": 3780,
      "bring": 3781,
      "amér": 3782,
      "budgétaires": 3783,
      "série": 3784,
      "normes": 3785,
      "ING": 3786,
      "lements": 3787,
      "sein": 3788,
      "ged": 3789,
      "69": 3790,
      "method": 3791,
      "become": 3792,
      "Ph": 3793,
      "here": 3794,
      "evalu": 3795,
      "essential": 3796,
      "Association": 3797,
      "Isla": 3798,
      "objectif": 3799,
      "systèmes": 3800,
      "aison": 3801,
      "direction": 3802,
      "racis": 3803,
      "court": 3804,
      "event": 3805,
      "ka": 3806,
      "VEL": 3807,
      "super": 3808,
      "significant": 3809,
      "exécutif": 3810,
      "Jama": 3811,
      "proté": 3812,
      "surveill": 3813,
      "mentioned": 3814,
      "étrangères": 3815,
      "quième": 3816,
      "Foreign": 3817,
      "rendre": 3818,
      "urgent": 3819,
      "conclusion": 3820,
      "sons": 3821,
      "research": 3822,
      "ours": 3823,
      "immédi": 3824,
      "welcom": 3825,
      "consultation": 3826,
      "encourage": 3827,
      "bureaux": 3828,
      "coup": 3829,
      "rappe": 3830,
      "commen": 3831,
      "results": 3832,
      "régime": 3833,
      "sequent": 3834,
      "tait": 3835,
      "nations": 3836,
      "pora": 3837,
      "engage": 3838,
      "existence": 3839,
      "hos": 3840,
      "fil": 3841,
      "européenne": 3842,
      "Roy": 3843,
      "thus": 3844,
      "expos": 3845,
      "poin": 3846,
      "Community": 3847,
      "ars": 3848,
      "cooper": 3849,
      "documentation": 3850,
      "observer": 3851,
      "High": 3852,
      "King": 3853,
      "heure": 3854,
      "carry": 3855,
      "Public": 3856,
      "ouvel": 3857,
      "preu": 3858,
      "effets": 3859,
      "iné": 3860,
      "porting": 3861,
      "énon": 3862,
      "civile": 3863,
      "défense": 3864,
      "avons": 3865,
      "Toute": 3866,
      "pti": 3867,
      "estime": 3868,
      "lit": 3869,
      "priority": 3870,
      "andid": 3871,
      "ATIONAL": 3872,
      "TIONS": 3873,
      "Sy": 3874,
      "undertaken": 3875,
      "capacités": 3876,
      "sensi": 3877,
      "expan": 3878,
      "75": 3879,
      "Sur": 3880,
      "biennium": 3881,
      "las": 3882,
      "proposé": 3883,
      "harmon": 3884,
      "65": 3885,
      "64": 3886,
      "kil": 3887,
      "specialized": 3888,
      "capacité": 3889,
      "preparation": 3890,
      "Bas": 3891,
      "engag": 3892,
      "touch": 3893,
      "62": 3894,
      "identi": 3895,
      "humanitaires": 3896,
      "lois": 3897,
      "approved": 3898,
      "providing": 3899,
      "assu": 3900,
      "contexte": 3901,
      "valeur": 3902,
      "ared": 3903,
      "accor": 3904,
      "attend": 3905,
      "Head": 3906,
      "Point": 3907,
      "amp": 3908,
      "109": 3909,
      "activité": 3910,
      "settlement": 3911,
      "requests": 3912,
      "intitulé": 3913,
      "Further": 3914,
      "procedure": 3915,
      "Ci": 3916,
      "Note": 3917,
      "Indon": 3918,
      "secretariat": 3919,
      "broad": 3920,
      "functions": 3921,
      "Minist": 3922,
      "acquit": 3923,
      "avi": 3924,
      "play": 3925,
      "aucoup": 3926,
      "wn": 3927,
      "democratic": 3928,
      "SECUR": 3929,
      "cks": 3930,
      "mine": 3931,
      "destruction": 3932,
      "All": 3933,
      "ciliation": 3934,
      "Haiti": 3935,
      "DC": 3936,
      "telles": 3937,
      "procédures": 3938,
      "aér": 3939,
      "ouvr": 3940,
      "Reg": 3941,
      "garan": 3942,
      "Nord": 3943,
      "sements": 3944,
      "commissions": 3945,
      "ffic": 3946,
      "aise": 3947,
      "généraux": 3948,
      "indépendance": 3949,
      "ania": 3950,
      "requ": 3951,
      "miss": 3952,
      "bilities": 3953,
      "Trans": 3954,
      "établissements": 3955,
      "Cy": 3956,
      "mari": 3957,
      "endum": 3958,
      "IA": 3959,
      "hes": 3960,
      "débat": 3961,
      "qualité": 3962,
      "avantage": 3963,
      "candid": 3964,
      "ior": 3965,
      "solutions": 3966,
      "determination": 3967,
      "formu": 3968,
      "pover": 3969,
      "individual": 3970,
      "neur": 3971,
      "combat": 3972,
      "effect": 3973,
      "IE": 3974,
      "how": 3975,
      "incident": 3976,
      "descri": 3977,
      "Protection": 3978,
      "meet": 3979,
      "peaceful": 3980,
      "analyse": 3981,
      "greater": 3982,
      "operational": 3983,
      "79": 3984,
      "ik": 3985,
      "informed": 3986,
      "Slo": 3987,
      "secteurs": 3988,
      "revised": 3989,
      "raft": 3990,
      "get": 3991,
      "Colomb": 3992,
      "rought": 3993,
      "death": 3994,
      "prevent": 3995,
      "femme": 3996,
      "ël": 3997,
      "Vi": 3998,
      "alle": 3999,
      "exploitation": 4000,
      "cée": 4001,
      "circum": 4002,
      "ONUS": 4003,
      "croissance": 4004,
      "assessment": 4005,
      "safe": 4006,
      "fiques": 4007,
      "700": 4008,
      "fran": 4009,
      "expérience": 4010,
      "Civil": 4011,
      "ueil": 4012,
      "TR": 4013,
      "âce": 4014,
      "maintenant": 4015,
      "contribuer": 4016,
      "TEE": 4017,
      "inc": 4018,
      "ists": 4019,
      "expl": 4020,
      "key": 4021,
      "faudrait": 4022,
      "astrop": 4023,
      "distin": 4024,
      "ISSION": 4025,
      "dam": 4026,
      "antive": 4027,
      "natural": 4028,
      "dernier": 4029,
      "dits": 4030,
      "unes": 4031,
      "civilian": 4032,
      "five": 4033,
      "catastrop": 4034,
      "appreci": 4035,
      "Agreement": 4036,
      "han": 4037,
      "treatment": 4038,
      "ôt": 4039,
      "fif": 4040,
      "absence": 4041,
      "Gaza": 4042,
      "bureau": 4043,
      "sif": 4044,
      "différents": 4045,
      "frais": 4046,
      "publiques": 4047,
      "Israël": 4048,
      "tribunal": 4049,
      "taires": 4050,
      "provides": 4051,
      "citoy": 4052,
      "def": 4053,
      "phase": 4054,
      "caractère": 4055,
      "proposition": 4056,
      "whose": 4057,
      "CES": 4058,
      "SES": 4059,
      "atta": 4060,
      "nombreuses": 4061,
      "licop": 4062,
      "sim": 4063,
      "acy": 4064,
      "hui": 4065,
      "poverty": 4066,
      "Non": 4067,
      "aragu": 4068,
      "Coord": 4069,
      "discussion": 4070,
      "Central": 4071,
      "going": 4072,
      "occupied": 4073,
      "mutu": 4074,
      "ological": 4075,
      "traitement": 4076,
      "proceed": 4077,
      "indu": 4078,
      "placement": 4079,
      "tières": 4080,
      "ops": 4081,
      "coming": 4082,
      "Tech": 4083,
      "Déc": 4084,
      "execu": 4085,
      "empê": 4086,
      "88": 4087,
      "chang": 4088,
      "plies": 4089,
      "fish": 4090,
      "pointed": 4091,
      "needed": 4092,
      "cinq": 4093,
      "ABLE": 4094,
      "ply": 4095,
      "Asie": 4096,
      "réserve": 4097,
      "gether": 4098,
      "alling": 4099,
      "early": 4100,
      "pauvre": 4101,
      "NE": 4102,
      "fire": 4103,
      "ming": 4104,
      "plé": 4105,
      "jourd": 4106,
      "beaucoup": 4107,
      "consci": 4108,
      "Directeur": 4109,
      "front": 4110,
      "const": 4111,
      "cession": 4112,
      "That": 4113,
      "difficultés": 4114,
      "convient": 4115,
      "répondre": 4116,
      "pun": 4117,
      "recognized": 4118,
      "servation": 4119,
      "begin": 4120,
      "akh": 4121,
      "incor": 4122,
      "ief": 4123,
      "égalité": 4124,
      "1982": 4125,
      "society": 4126,
      "rule": 4127,
      "ulations": 4128,
      "alem": 4129,
      "tructure": 4130,
      "recommended": 4131,
      "VELOP": 4132,
      "GE": 4133,
      "étro": 4134,
      "itself": 4135,
      "Croatia": 4136,
      "cide": 4137,
      "cela": 4138,
      "compar": 4139,
      "expression": 4140,
      "migr": 4141,
      "ody": 4142,
      "issued": 4143,
      "iginal": 4144,
      "ARY": 4145,
      "tand": 4146,
      "proposal": 4147,
      "AUX": 4148,
      "responsables": 4149,
      "subsidi": 4150,
      "Page": 4151,
      "feu": 4152,
      "nant": 4153,
      "conv": 4154,
      "poses": 4155,
      "convention": 4156,
      "NATIONAL": 4157,
      "transmit": 4158,
      "Justice": 4159,
      "occur": 4160,
      "Tribunal": 4161,
      "atell": 4162,
      "steps": 4163,
      "camp": 4164,
      "economy": 4165,
      "histor": 4166,
      "conférence": 4167,
      "justif": 4168,
      "appeal": 4169,
      "CC": 4170,
      "command": 4171,
      "option": 4172,
      "difficul": 4173,
      "périodi": 4174,
      "réf": 4175,
      "QUE": 4176,
      "êmes": 4177,
      "ternal": 4178,
      "minim": 4179,
      "usalem": 4180,
      "judiciaire": 4181,
      "détention": 4182,
      "least": 4183,
      "pauvreté": 4184,
      "ène": 4185,
      "DEVELOP": 4186,
      "78": 4187,
      "précédent": 4188,
      "quées": 4189,
      "ratif": 4190,
      "venus": 4191,
      "Section": 4192,
      "font": 4193,
      "25070": 4194,
      "commande": 4195,
      "Techn": 4196,
      "adopter": 4197,
      "approu": 4198,
      "Ri": 4199,
      "structures": 4200,
      "Sh": 4201,
      "termes": 4202,
      "cou": 4203,
      "ventive": 4204,
      "ash": 4205,
      "semin": 4206,
      "disposition": 4207,
      "fications": 4208,
      "800": 4209,
      "having": 4210,
      "qués": 4211,
      "proli": 4212,
      "Members": 4213,
      "source": 4214,
      "condam": 4215,
      "circumstances": 4216,
      "items": 4217,
      "vul": 4218,
      "membership": 4219,
      "function": 4220,
      "income": 4221,
      "detention": 4222,
      "CNU": 4223,
      "signal": 4224,
      "secours": 4225,
      "portant": 4226,
      "Agency": 4227,
      "initial": 4228,
      "agents": 4229,
      "aume": 4230,
      "principal": 4231,
      "défini": 4232,
      "arms": 4233,
      "spécialisées": 4234,
      "ators": 4235,
      "télé": 4236,
      "iement": 4237,
      "ateg": 4238,
      "Prie": 4239,
      "Ministry": 4240,
      "technologies": 4241,
      "ATI": 4242,
      "together": 4243,
      "Kingdom": 4244,
      "enable": 4245,
      "alla": 4246,
      "aries": 4247,
      "practice": 4248,
      "depend": 4249,
      "lack": 4250,
      "Royaume": 4251,
      "Ministère": 4252,
      "march": 4253,
      "Sum": 4254,
      "sche": 4255,
      "instamment": 4256,
      "régionale": 4257,
      "kilom": 4258,
      "Four": 4259,
      "souvent": 4260,
      "pratiques": 4261,
      "ètres": 4262,
      "mêmes": 4263,
      "sens": 4264,
      "conting": 4265,
      "fonctionnement": 4266,
      "Cooperation": 4267,
      "ctoral": 4268,
      "According": 4269,
      "ît": 4270,
      "juridiques": 4271,
      "souligné": 4272,
      "does": 4273,
      "Rw": 4274,
      "catég": 4275,
      "permis": 4276,
      "border": 4277,
      "91": 4278,
      "pertinentes": 4279,
      "Tunis": 4280,
      "hope": 4281,
      "zamb": 4282,
      "Haut": 4283,
      "usement": 4284,
      "indre": 4285,
      "religion": 4286,
      "honour": 4287,
      "isms": 4288,
      "auteur": 4289,
      "Second": 4290,
      "Cambodi": 4291,
      "People": 4292,
      "**": 4293,
      "rend": 4294,
      "dan": 4295,
      "sommes": 4296,
      "unt": 4297,
      "aimed": 4298,
      "arabe": 4299,
      "UNES": 4300,
      "observers": 4301,
      "flow": 4302,
      "bed": 4303,
      "anni": 4304,
      "graves": 4305,
      "Croatie": 4306,
      "humaines": 4307,
      "61": 4308,
      "ilip": 4309,
      "industrial": 4310,
      "enquête": 4311,
      "follows": 4312,
      "elections": 4313,
      "judicial": 4314,
      "rural": 4315,
      "démocratie": 4316,
      "statistiques": 4317,
      "ouvrir": 4318,
      "vidence": 4319,
      "existe": 4320,
      "discussions": 4321,
      "étrangers": 4322,
      "gener": 4323,
      "élimination": 4324,
      "iness": 4325,
      "vir": 4326,
      "Treaty": 4327,
      "réparti": 4328,
      "Nicaragu": 4329,
      "return": 4330,
      "hommes": 4331,
      "debt": 4332,
      "disarmament": 4333,
      "locaux": 4334,
      "indicated": 4335,
      "Ger": 4336,
      "cemment": 4337,
      "ail": 4338,
      "authority": 4339,
      "funds": 4340,
      "victims": 4341,
      "isée": 4342,
      "naître": 4343,
      "administratives": 4344,
      "Governing": 4345,
      "poursuivre": 4346,
      "conséquences": 4347,
      "cannot": 4348,
      "reconstruction": 4349,
      "Dem": 4350,
      "pê": 4351,
      "ANN": 4352,
      "capit": 4353,
      "agissant": 4354,
      "intervention": 4355,
      "plupart": 4356,
      "FAO": 4357,
      "volont": 4358,
      "another": 4359,
      "Latin": 4360,
      "libre": 4361,
      "LET": 4362,
      "adequate": 4363,
      "ptième": 4364,
      "indispens": 4365,
      "imb": 4366,
      "mique": 4367,
      "icains": 4368,
      "fourni": 4369,
      "selves": 4370,
      "integra": 4371,
      "affected": 4372,
      "Ra": 4373,
      "opportunity": 4374,
      "perspec": 4375,
      "liste": 4376,
      "ules": 4377,
      "desh": 4378,
      "principaux": 4379,
      "UNESCO": 4380,
      "equ": 4381,
      "recru": 4382,
      "exercise": 4383,
      "purposes": 4384,
      "dû": 4385,
      "susp": 4386,
      "ablement": 4387,
      "categ": 4388,
      "market": 4389,
      "habitants": 4390,
      "dépla": 4391,
      "commission": 4392,
      "quatrième": 4393,
      "During": 4394,
      "récent": 4395,
      "grave": 4396,
      "indemn": 4397,
      "honneur": 4398,
      "grâce": 4399,
      "Institut": 4400,
      "angladesh": 4401,
      "While": 4402,
      "origine": 4403,
      "instrument": 4404,
      "Child": 4405,
      "volonté": 4406,
      "intes": 4407,
      "assis": 4408,
      "créé": 4409,
      "times": 4410,
      "Islamic": 4411,
      "précis": 4412,
      "aïd": 4413,
      "Alban": 4414,
      "If": 4415,
      "ago": 4416,
      "proch": 4417,
      "ither": 4418,
      "1984": 4419,
      "déb": 4420,
      "untary": 4421,
      "allen": 4422,
      "UL": 4423,
      "tot": 4424,
      "satell": 4425,
      "GRA": 4426,
      "pap": 4427,
      "improve": 4428,
      "participate": 4429,
      "mechanisms": 4430,
      "voie": 4431,
      "socio": 4432,
      "inat": 4433,
      "financing": 4434,
      "facilities": 4435,
      "ilipp": 4436,
      "Sci": 4437,
      "aijan": 4438,
      "multilateral": 4439,
      "intérêts": 4440,
      "pol": 4441,
      "compet": 4442,
      "ITS": 4443,
      "views": 4444,
      "Azerbaijan": 4445,
      "interests": 4446,
      "membre": 4447,
      "lier": 4448,
      "Prin": 4449,
      "govern": 4450,
      "ward": 4451,
      "priva": 4452,
      "few": 4453,
      "inscr": 4454,
      "président": 4455,
      "transpar": 4456,
      "substanti": 4457,
      "others": 4458,
      "veness": 4459,
      "consist": 4460,
      "faite": 4461,
      "committed": 4462,
      "lequel": 4463,
      "collective": 4464,
      "Bangladesh": 4465,
      "récemment": 4466,
      "heures": 4467,
      "contribute": 4468,
      "quanti": 4469,
      "sification": 4470,
      "overall": 4471,
      "gies": 4472,
      "limin": 4473,
      "ennie": 4474,
      "popu": 4475,
      "org": 4476,
      "rése": 4477,
      "exchange": 4478,
      "substantive": 4479,
      "consequ": 4480,
      "préparatoire": 4481,
      "chac": 4482,
      "obtenir": 4483,
      "short": 4484,
      "etc": 4485,
      "lorsque": 4486,
      "cure": 4487,
      "marché": 4488,
      "standards": 4489,
      "centrale": 4490,
      "limited": 4491,
      "détermination": 4492,
      "quali": 4493,
      "missi": 4494,
      "72": 4495,
      "det": 4496,
      "ane": 4497,
      "guidelines": 4498,
      "Institute": 4499,
      "mass": 4500,
      "liv": 4501,
      "aïdjan": 4502,
      "concl": 4503,
      "début": 4504,
      "tenues": 4505,
      "ANT": 4506,
      "aïti": 4507,
      "conflicts": 4508,
      "whole": 4509,
      "méthodes": 4510,
      "septième": 4511,
      "règles": 4512,
      "Vice": 4513,
      "terres": 4514,
      "76": 4515,
      "étés": 4516,
      "71": 4517,
      "investment": 4518,
      "though": 4519,
      "CED": 4520,
      "apporter": 4521,
      "):": 4522,
      "Por": 4523,
      "espr": 4524,
      "ering": 4525,
      "aring": 4526,
      "until": 4527,
      "reste": 4528,
      "strong": 4529,
      "demandes": 4530,
      "RESSE": 4531,
      "traffic": 4532,
      "directives": 4533,
      "mou": 4534,
      "agit": 4535,
      "niveaux": 4536,
      "Inv": 4537,
      "commitment": 4538,
      "Cer": 4539,
      "down": 4540,
      "mograph": 4541,
      "233": 4542,
      "unité": 4543,
      "territories": 4544,
      "encourager": 4545,
      "pléni": 4546,
      "avenir": 4547,
      "pect": 4548,
      "voit": 4549,
      "coû": 4550,
      "importante": 4551,
      "ologiques": 4552,
      "vation": 4553,
      "Reques": 4554,
      "UNIT": 4555,
      "achieve": 4556,
      "democracy": 4557,
      "currently": 4558,
      "auraient": 4559,
      "scale": 4560,
      "undi": 4561,
      "propres": 4562,
      "ax": 4563,
      "transit": 4564,
      "dernières": 4565,
      "Aut": 4566,
      "réalisation": 4567,
      "One": 4568,
      "Rwanda": 4569,
      "dec": 4570,
      "domes": 4571,
      "modal": 4572,
      "INTERNATIONAL": 4573,
      "séances": 4574,
      "Trade": 4575,
      "yet": 4576,
      "réaffir": 4577,
      "Region": 4578,
      "dispon": 4579,
      "isra": 4580,
      "Traité": 4581,
      "esprit": 4582,
      "évent": 4583,
      "avan": 4584,
      "Israeli": 4585,
      "vot": 4586,
      "circu": 4587,
      "complete": 4588,
      "Quarante": 4589,
      "facilitate": 4590,
      "Toutefois": 4591,
      "iens": 4592,
      "financière": 4593,
      "kind": 4594,
      "task": 4595,
      "extr": 4596,
      "conference": 4597,
      "constitue": 4598,
      "VIII": 4599,
      "faisant": 4600,
      "Nicaragua": 4601,
      "CIAL": 4602,
      "dessus": 4603,
      "food": 4604,
      "focus": 4605,
      "Political": 4606,
      "His": 4607,
      "actuelle": 4608,
      "propre": 4609,
      "refugee": 4610,
      "PL": 4611,
      "matique": 4612,
      "China": 4613,
      "signed": 4614,
      "Paragrap": 4615,
      "much": 4616,
      "ède": 4617,
      "reference": 4618,
      "speak": 4619,
      "aujourd": 4620,
      "RET": 4621,
      "annual": 4622,
      "back": 4623,
      "gious": 4624,
      "davantage": 4625,
      "ducational": 4626,
      "ology": 4627,
      "Ir": 4628,
      "agg": 4629,
      "SO": 4630,
      "comment": 4631,
      "islamique": 4632,
      "redu": 4633,
      "observation": 4634,
      "Rom": 4635,
      "Territories": 4636,
      "ual": 4637,
      "dela": 4638,
      "relief": 4639,
      "organs": 4640,
      "tine": 4641,
      "compens": 4642,
      "provisional": 4643,
      "Protocol": 4644,
      "hau": 4645,
      "iller": 4646,
      "Armen": 4647,
      "living": 4648,
      "Asia": 4649,
      "offr": 4650,
      "énergie": 4651,
      "industr": 4652,
      "izing": 4653,
      "hold": 4654,
      "ologique": 4655,
      "icain": 4656,
      "biens": 4657,
      "lorsqu": 4658,
      "Gh": 4659,
      "naturelles": 4660,
      "Mozamb": 4661,
      "Pri": 4662,
      "bur": 4663,
      "irement": 4664,
      "occupation": 4665,
      "ung": 4666,
      "Pop": 4667,
      "dimin": 4668,
      "origin": 4669,
      "Philipp": 4670,
      "adoptée": 4671,
      "transfert": 4672,
      "limité": 4673,
      "ood": 4674,
      "travel": 4675,
      "administr": 4676,
      "adoptées": 4677,
      "islative": 4678,
      "imes": 4679,
      "érences": 4680,
      "version": 4681,
      "itaire": 4682,
      "Pacific": 4683,
      "PC": 4684,
      "recommandé": 4685,
      "radio": 4686,
      "list": 4687,
      "lex": 4688,
      "Niger": 4689,
      "habilitation": 4690,
      "mates": 4691,
      "érieure": 4692,
      "directement": 4693,
      "Haïti": 4694,
      "Since": 4695,
      "insu": 4696,
      "perfor": 4697,
      "donateurs": 4698,
      "cesse": 4699,
      "promoting": 4700,
      "dées": 4701,
      "TABLE": 4702,
      "tisation": 4703,
      "plement": 4704,
      "réta": 4705,
      "capital": 4706,
      "usion": 4707,
      "vérification": 4708,
      "infrastructure": 4709,
      "paragraphs": 4710,
      "reçu": 4711,
      "district": 4712,
      "propri": 4713,
      "entraî": 4714,
      "99": 4715,
      "Fran": 4716,
      "themselves": 4717,
      "stric": 4718,
      "organized": 4719,
      "mort": 4720,
      "regions": 4721,
      "according": 4722,
      "déla": 4723,
      "quelques": 4724,
      "UNIES": 4725,
      "Premi": 4726,
      "aliné": 4727,
      "unique": 4728,
      "accomp": 4729,
      "days": 4730,
      "pi": 4731,
      "enregis": 4732,
      "concent": 4733,
      "conservation": 4734,
      "soumis": 4735,
      "ANNEX": 4736,
      "next": 4737,
      "pected": 4738,
      "interpré": 4739,
      "raisons": 4740,
      "tiers": 4741,
      "simil": 4742,
      "supported": 4743,
      "name": 4744,
      "équipe": 4745,
      "tered": 4746,
      "agne": 4747,
      "agriculture": 4748,
      "1983": 4749,
      "employment": 4750,
      "VER": 4751,
      "arch": 4752,
      "quie": 4753,
      "objective": 4754,
      "ventions": 4755,
      "understanding": 4756,
      "continuing": 4757,
      "enary": 4758,
      "Japan": 4759,
      "obstacles": 4760,
      "assa": 4761,
      "différentes": 4762,
      "guay": 4763,
      "reason": 4764,
      "peine": 4765,
      "better": 4766,
      "body": 4767,
      "eign": 4768,
      "mary": 4769,
      "tiveness": 4770,
      "external": 4771,
      "Nouvel": 4772,
      "types": 4773,
      "sociales": 4774,
      "réponse": 4775,
      "souver": 4776,
      "assemb": 4777,
      "humains": 4778,
      "vée": 4779,
      "espace": 4780,
      "achieved": 4781,
      "contact": 4782,
      "potential": 4783,
      "élec": 4784,
      "portion": 4785,
      "immédiate": 4786,
      "Jer": 4787,
      "armées": 4788,
      "PROF": 4789,
      "vac": 4790,
      "studies": 4791,
      "responsabilités": 4792,
      "toutefois": 4793,
      "hop": 4794,
      "liament": 4795,
      "contrô": 4796,
      "régu": 4797,
      "recommendation": 4798,
      "prévisions": 4799,
      "fut": 4800,
      "challen": 4801,
      "jeunes": 4802,
      "èvement": 4803,
      "withdraw": 4804,
      "accus": 4805,
      "Banque": 4806,
      "isis": 4807,
      "psy": 4808,
      "réglement": 4809,
      "confiance": 4810,
      "quoi": 4811,
      "interdiction": 4812,
      "paragraphes": 4813,
      "stocks": 4814,
      "Kore": 4815,
      "Questions": 4816,
      "construc": 4817,
      "igné": 4818,
      "responsibilities": 4819,
      "preuve": 4820,
      "extent": 4821,
      "maxim": 4822,
      "maine": 4823,
      "Ori": 4824,
      "prevention": 4825,
      "domestic": 4826,
      "prix": 4827,
      "implemented": 4828,
      "syn": 4829,
      "confid": 4830,
      "laws": 4831,
      "Uru": 4832,
      "ORD": 4833,
      "embar": 4834,
      "Uruguay": 4835,
      "University": 4836,
      "Princip": 4837,
      "89": 4838,
      "quée": 4839,
      "oul": 4840,
      "succès": 4841,
      "74": 4842,
      "da": 4843,
      "inth": 4844,
      "favour": 4845,
      "constat": 4846,
      "sover": 4847,
      "ONG": 4848,
      "Chine": 4849,
      "instance": 4850,
      "analysis": 4851,
      "Philippines": 4852,
      "déclarations": 4853,
      "lum": 4854,
      "vér": 4855,
      "rative": 4856,
      "suivantes": 4857,
      "sovereign": 4858,
      "COUN": 4859,
      "Cari": 4860,
      "interpre": 4861,
      "surveillance": 4862,
      "claim": 4863,
      "petits": 4864,
      "below": 4865,
      "dispu": 4866,
      "UNPROF": 4867,
      "UNPROFOR": 4868,
      "Gran": 4869,
      "noté": 4870,
      "POUR": 4871,
      "officials": 4872,
      "Administrative": 4873,
      "Portu": 4874,
      "relig": 4875,
      "parents": 4876,
      "influ": 4877,
      "hy": 4878,
      "juris": 4879,
      "citizens": 4880,
      "Tout": 4881,
      "demon": 4882,
      "prié": 4883,
      "SECRET": 4884,
      "island": 4885,
      "Coordination": 4886,
      "LI": 4887,
      "désig": 4888,
      "expected": 4889,
      "Meeting": 4890,
      "ibles": 4891,
      "ethniques": 4892,
      "rates": 4893,
      "ution": 4894,
      "Engl": 4895,
      "English": 4896,
      "lect": 4897,
      "israéli": 4898,
      "refus": 4899,
      "déterminer": 4900,
      "danger": 4901,
      "devait": 4902,
      "disas": 4903,
      "volu": 4904,
      "organe": 4905,
      "enjo": 4906,
      "changements": 4907,
      "ouse": 4908,
      "dences": 4909,
      "dette": 4910,
      "once": 4911,
      "intergovernmental": 4912,
      "Carib": 4913,
      "mind": 4914,
      "Requests": 4915,
      "Commiss": 4916,
      "éria": 4917,
      "sectors": 4918,
      "accompl": 4919,
      "estimates": 4920,
      "étudier": 4921,
      "punish": 4922,
      "vième": 4923,
      "attribu": 4924,
      "parmi": 4925,
      "handic": 4926,
      "matic": 4927,
      "Australia": 4928,
      "dle": 4929,
      "recommandation": 4930,
      "FM": 4931,
      "Pow": 4932,
      "mid": 4933,
      "intérim": 4934,
      "accroître": 4935,
      "Regional": 4936,
      "acter": 4937,
      "éco": 4938,
      "tribun": 4939,
      "autés": 4940,
      "progres": 4941,
      "Territory": 4942,
      "Orient": 4943,
      "menting": 4944,
      "die": 4945,
      "publics": 4946,
      "multilatér": 4947,
      "frontière": 4948,
      "San": 4949,
      "hous": 4950,
      "wee": 4951,
      "Original": 4952,
      "vehic": 4953,
      "hér": 4954,
      "property": 4955,
      "liaison": 4956,
      "displaced": 4957,
      "bilités": 4958,
      "pir": 4959,
      "Cambod": 4960,
      "resol": 4961,
      "inspection": 4962,
      "often": 4963,
      "Ku": 4964,
      "TED": 4965,
      "réduire": 4966,
      "prohib": 4967,
      "bean": 4968,
      "dernière": 4969,
      "85": 4970,
      "terrain": 4971,
      "soutien": 4972,
      "pacifique": 4973,
      "Caribbean": 4974,
      "IGH": 4975,
      "ORGANIS": 4976,
      "iraqui": 4977,
      "iri": 4978,
      "Siège": 4979,
      "minorities": 4980,
      "Some": 4981,
      "MO": 4982,
      "importants": 4983,
      "brought": 4984,
      "ico": 4985,
      "independent": 4986,
      "Mozambique": 4987,
      "rapidement": 4988,
      "seventh": 4989,
      "félicite": 4990,
      "Cambodia": 4991,
      "FORPRONU": 4992,
      "rant": 4993,
      "iii": 4994,
      "statements": 4995,
      "WA": 4996,
      "menac": 4997,
      "populaire": 4998,
      "handicap": 4999,
      "difficulties": 5000,
      "mant": 5001,
      "rence": 5002,
      "yen": 5003,
      "Such": 5004,
      "prac": 5005,
      "GRAM": 5006,
      "MA": 5007,
      "énég": 5008,
      "comptes": 5009,
      "juste": 5010,
      "trafic": 5011,
      "dispar": 5012,
      "juge": 5013,
      "Vien": 5014,
      "courts": 5015,
      "installations": 5016,
      "independence": 5017,
      "Signé": 5018,
      "UNE": 5019,
      "Burundi": 5020,
      "çais": 5021,
      "deme": 5022,
      "PEN": 5023,
      "Summit": 5024,
      "iale": 5025,
      "jouer": 5026,
      "perman": 5027,
      "acquis": 5028,
      "cô": 5029,
      "illed": 5030,
      "throughout": 5031,
      "concept": 5032,
      "Vienna": 5033,
      "Administration": 5034,
      "approuvé": 5035,
      "évé": 5036,
      "déplo": 5037,
      "UNCT": 5038,
      "demander": 5039,
      "periodic": 5040,
      "envoy": 5041,
      "viend": 5042,
      "suffic": 5043,
      "implications": 5044,
      "itary": 5045,
      "tempor": 5046,
      "Prof": 5047,
      "crimination": 5048,
      "amélioration": 5049,
      "More": 5050,
      "outi": 5051,
      "allég": 5052,
      "iency": 5053,
      "Lan": 5054,
      "Assistance": 5055,
      "Sudan": 5056,
      "Pacifique": 5057,
      "rus": 5058,
      "ERATION": 5059,
      "arabes": 5060,
      "sémin": 5061,
      "Corée": 5062,
      "PROGRAM": 5063,
      "importantes": 5064,
      "éventu": 5065,
      "lesquelles": 5066,
      "UNCTAD": 5067,
      "Lors": 5068,
      "kill": 5069,
      "religious": 5070,
      "istic": 5071,
      "Somalia": 5072,
      "appelant": 5073,
      "réguli": 5074,
      "Selon": 5075,
      "Year": 5076,
      "fondamentaux": 5077,
      "étroite": 5078,
      "Nouvelle": 5079,
      "retour": 5080,
      "Disarmament": 5081,
      "subsequent": 5082,
      "protéger": 5083,
      "ensur": 5084,
      "concerns": 5085,
      "Preparatory": 5086,
      "aïbes": 5087,
      "Discrimination": 5088,
      "96": 5089,
      "manifest": 5090,
      "Caraïbes": 5091,
      "Chy": 5092,
      "utili": 5093,
      "garanties": 5094,
      "uela": 5095,
      "montr": 5096,
      "expansion": 5097,
      "dimen": 5098,
      "India": 5099,
      "mage": 5100,
      "1978": 5101,
      "Protocole": 5102,
      "23370": 5103,
      "communities": 5104,
      "fédérative": 5105,
      "dispose": 5106,
      "manner": 5107,
      "encourag": 5108,
      "conduc": 5109,
      "Deux": 5110,
      "IR": 5111,
      "Letter": 5112,
      "schools": 5113,
      "dot": 5114,
      "grad": 5115,
      "procéder": 5116,
      "substances": 5117,
      "pénale": 5118,
      "Costa": 5119,
      "Lettre": 5120,
      "tag": 5121,
      "indispensable": 5122,
      "ality": 5123,
      "seul": 5124,
      "forth": 5125,
      "perp": 5126,
      "aura": 5127,
      "PORT": 5128,
      "reser": 5129,
      "1981": 5130,
      "individuals": 5131,
      "élarg": 5132,
      "Cambodge": 5133,
      "Bra": 5134,
      "Commissioner": 5135,
      "cop": 5136,
      "sociétés": 5137,
      "majority": 5138,
      "ha": 5139,
      "intermédi": 5140,
      "reached": 5141,
      "HU": 5142,
      "attem": 5143,
      "sorte": 5144,
      "véhic": 5145,
      "economies": 5146,
      "possibilités": 5147,
      "permettant": 5148,
      "applicable": 5149,
      "approche": 5150,
      "stratégie": 5151,
      "language": 5152,
      "conde": 5153,
      "déplacées": 5154,
      "prepar": 5155,
      "recently": 5156,
      "neuvième": 5157,
      "déployés": 5158,
      "citoyens": 5159,
      "Oper": 5160,
      "conventions": 5161,
      "hours": 5162,
      "ably": 5163,
      "PRESENT": 5164,
      "COMMISSION": 5165,
      "élaborer": 5166,
      "ann": 5167,
      "rendu": 5168,
      "guarante": 5169,
      "enez": 5170,
      "vas": 5171,
      "effects": 5172,
      "pouvoirs": 5173,
      "Australie": 5174,
      "character": 5175,
      "OB": 5176,
      "tees": 5177,
      "assade": 5178,
      "Vienne": 5179,
      "amend": 5180,
      "Liber": 5181,
      "tering": 5182,
      "adjust": 5183,
      "grandes": 5184,
      "Eston": 5185,
      "Zamb": 5186,
      "thing": 5187,
      "Eth": 5188,
      "constituent": 5189,
      "conséquence": 5190,
      "puisse": 5191,
      "stabilité": 5192,
      "Viet": 5193,
      "Be": 5194,
      "gique": 5195,
      "98": 5196,
      "wi": 5197,
      "notes": 5198,
      "veiller": 5199,
      "By": 5200,
      "bid": 5201,
      "convic": 5202,
      "resource": 5203,
      "durée": 5204,
      "Mor": 5205,
      "server": 5206,
      "volon": 5207,
      "causes": 5208,
      "reconnu": 5209,
      "nam": 5210,
      "urer": 5211,
      "Countries": 5212,
      "ITY": 5213,
      "formément": 5214,
      "internal": 5215,
      "imple": 5216,
      "dirige": 5217,
      "Ken": 5218,
      "crisis": 5219,
      "primary": 5220,
      "hor": 5221,
      "iled": 5222,
      "pat": 5223,
      "labour": 5224,
      "territorial": 5225,
      "FE": 5226,
      "ani": 5227,
      "latine": 5228,
      "pron": 5229,
      "relationship": 5230,
      "implementing": 5231,
      "tribunaux": 5232,
      "regime": 5233,
      "libertés": 5234,
      "affectation": 5235,
      "del": 5236,
      "aran": 5237,
      "done": 5238,
      "Mus": 5239,
      "Venez": 5240,
      "prévoit": 5241,
      "concur": 5242,
      "compati": 5243,
      "Democra": 5244,
      "Population": 5245,
      "units": 5246,
      "Conformément": 5247,
      "team": 5248,
      "vois": 5249,
      "relation": 5250,
      "Sommet": 5251,
      "Eli": 5252,
      "OC": 5253,
      "voluntary": 5254,
      "strategy": 5255,
      "BY": 5256,
      "formulation": 5257,
      "présence": 5258,
      "autorité": 5259,
      "elements": 5260,
      "bus": 5261,
      "sufficient": 5262,
      "rehabilitation": 5263,
      "conseil": 5264,
      "culturels": 5265,
      "asked": 5266,
      "Guate": 5267,
      "catastrophes": 5268,
      "CNUCED": 5269,
      "evidence": 5270,
      "Consi": 5271,
      "crise": 5272,
      "DEC": 5273,
      "eas": 5274,
      "développ": 5275,
      "estimé": 5276,
      "majorité": 5277,
      "evaluation": 5278,
      "forced": 5279,
      "Korea": 5280,
      "Fir": 5281,
      "welcomed": 5282,
      "oration": 5283,
      "journal": 5284,
      "Portugal": 5285,
      "prési": 5286,
      "normal": 5287,
      "ethnique": 5288,
      "TRA": 5289,
      "Document": 5290,
      "Depuis": 5291,
      "privé": 5292,
      "engagement": 5293,
      "détaill": 5294,
      "consequences": 5295,
      "bar": 5296,
      "reform": 5297,
      "old": 5298,
      "prus": 5299,
      "stability": 5300,
      "1976": 5301,
      "coûts": 5302,
      "alinéa": 5303,
      "Provision": 5304,
      "regret": 5305,
      "Cyprus": 5306,
      "cted": 5307,
      "vise": 5308,
      "medical": 5309,
      "Austri": 5310,
      "mécanisme": 5311,
      "confidence": 5312,
      "remo": 5313,
      "traité": 5314,
      "informé": 5315,
      "arbitra": 5316,
      "rappor": 5317,
      "alleged": 5318,
      "compétence": 5319,
      "ased": 5320,
      "manu": 5321,
      "tradu": 5322,
      "communautés": 5323,
      "Cela": 5324,
      "annivers": 5325,
      "interprétation": 5326,
      "aria": 5327,
      "establishing": 5328,
      "officers": 5329,
      "palestinien": 5330,
      "TRE": 5331,
      "ANCE": 5332,
      "directly": 5333,
      "acquitter": 5334,
      "tirer": 5335,
      "examine": 5336,
      "1967": 5337,
      "rac": 5338,
      "union": 5339,
      "ville": 5340,
      "enth": 5341,
      "beginning": 5342,
      "MIN": 5343,
      "Rou": 5344,
      "nord": 5345,
      "miner": 5346,
      "ANS": 5347,
      "Paris": 5348,
      "équitable": 5349,
      "sentence": 5350,
      "deli": 5351,
      "menées": 5352,
      "industri": 5353,
      "Alle": 5354,
      "dr": 5355,
      "lob": 5356,
      "appreciation": 5357,
      "Ambass": 5358,
      "activity": 5359,
      "bilateral": 5360,
      "stratégies": 5361,
      "bonne": 5362,
      "Jerusalem": 5363,
      "tage": 5364,
      "occident": 5365,
      "conduct": 5366,
      "Décennie": 5367,
      "committee": 5368,
      "MENTS": 5369,
      "plenary": 5370,
      "budgetary": 5371,
      "tâche": 5372,
      "Venezuela": 5373,
      "Bah": 5374,
      "ensuring": 5375,
      "IX": 5376,
      "ute": 5377,
      "reaffir": 5378,
      "loir": 5379,
      "ians": 5380,
      "Jord": 5381,
      "vio": 5382,
      "conférences": 5383,
      "reconnaissance": 5384,
      "adé": 5385,
      "istiques": 5386,
      "tization": 5387,
      "suggested": 5388,
      "similar": 5389,
      "Bud": 5390,
      "ible": 5391,
      "Somalie": 5392,
      "respecter": 5393,
      "enjoy": 5394,
      "82": 5395,
      "saf": 5396,
      "seek": 5397,
      "incidences": 5398,
      "First": 5399,
      "Cr": 5400,
      "workers": 5401,
      "agency": 5402,
      "CTION": 5403,
      "évaluer": 5404,
      "essentiellement": 5405,
      "Headquarters": 5406,
      "Fif": 5407,
      "performan": 5408,
      "rational": 5409,
      "témo": 5410,
      "fla": 5411,
      "timate": 5412,
      "oppos": 5413,
      "effectiveness": 5414,
      "abilité": 5415,
      "integrated": 5416,
      "DRO": 5417,
      "Gree": 5418,
      "Mil": 5419,
      "auteurs": 5420,
      "proportion": 5421,
      "igned": 5422,
      "armée": 5423,
      "show": 5424,
      "tempora": 5425,
      "introduced": 5426,
      "safety": 5427,
      "ule": 5428,
      "arily": 5429,
      "ITU": 5430,
      "garantir": 5431,
      "Mais": 5432,
      "faites": 5433,
      "ACC": 5434,
      "quality": 5435,
      "essentiel": 5436,
      "known": 5437,
      "rup": 5438,
      "estern": 5439,
      "centage": 5440,
      "législa": 5441,
      "appoint": 5442,
      "amen": 5443,
      "stage": 5444,
      "dès": 5445,
      "grands": 5446,
      "spati": 5447,
      "practical": 5448,
      "intermédiaire": 5449,
      "Sus": 5450,
      "publish": 5451,
      "discriminat": 5452,
      "funding": 5453,
      "permanente": 5454,
      "materials": 5455,
      "Management": 5456,
      "AIRE": 5457,
      "éviter": 5458,
      "stipu": 5459,
      "Mid": 5460,
      "reduction": 5461,
      "Unit": 5462,
      "diffusion": 5463,
      "Islands": 5464,
      "mplement": 5465,
      "Nu": 5466,
      "Rica": 5467,
      "SUR": 5468,
      "ously": 5469,
      "ledge": 5470,
      "cycle": 5471,
      "Mrs": 5472,
      "Ambassador": 5473,
      "Rappelant": 5474,
      "consoli": 5475,
      "bénéfici": 5476,
      "conciliation": 5477,
      "dix": 5478,
      "extend": 5479,
      "lang": 5480,
      "inée": 5481,
      "fel": 5482,
      "cinquième": 5483,
      "strategies": 5484,
      "anglais": 5485,
      "Irlande": 5486,
      "CONSE": 5487,
      "84": 5488,
      "outside": 5489,
      "presence": 5490,
      "presented": 5491,
      "appuyer": 5492,
      "tan": 5493,
      "estimate": 5494,
      "SESSION": 5495,
      "annon": 5496,
      "brut": 5497,
      "échelle": 5498,
      "agent": 5499,
      "passé": 5500,
      "complément": 5501,
      "LN": 5502,
      "échange": 5503,
      "86": 5504,
      "procla": 5505,
      "network": 5506,
      "Ire": 5507,
      "difficile": 5508,
      "Ireland": 5509,
      "ongoing": 5510,
      "moder": 5511,
      "pon": 5512,
      "anmar": 5513,
      "mosp": 5514,
      "dite": 5515,
      "réduction": 5516,
      "Japon": 5517,
      "intergouvernement": 5518,
      "aver": 5519,
      "facteurs": 5520,
      "participé": 5521,
      "priorité": 5522,
      "Ma": 5523,
      "couvrir": 5524,
      "investissements": 5525,
      "abilities": 5526,
      "utilis": 5527,
      "traitements": 5528,
      "Myanmar": 5529,
      "Middle": 5530,
      "fair": 5531,
      "légiti": 5532,
      "authorized": 5533,
      "enforcement": 5534,
      "utiliser": 5535,
      "families": 5536,
      "nucléaire": 5537,
      "disponibles": 5538,
      "lesquels": 5539,
      "forward": 5540,
      "pic": 5541,
      "rables": 5542,
      "summary": 5543,
      "insulaires": 5544,
      "cipl": 5545,
      "ieu": 5546,
      "balance": 5547,
      "engagements": 5548,
      "Guatemala": 5549,
      "penal": 5550,
      "Common": 5551,
      "ENCE": 5552,
      "expenditure": 5553,
      "Ber": 5554,
      "Den": 5555,
      "siège": 5556,
      "Refuge": 5557,
      "effectively": 5558,
      "ONUSAL": 5559,
      "kh": 5560,
      "pan": 5561,
      "ferences": 5562,
      "120": 5563,
      "Mad": 5564,
      "hors": 5565,
      "technologie": 5566,
      "Kenya": 5567,
      "thè": 5568,
      "envisager": 5569,
      "parvenir": 5570,
      "autant": 5571,
      "Guine": 5572,
      "comprom": 5573,
      "star": 5574,
      "108": 5575,
      "crédits": 5576,
      "Post": 5577,
      "tâches": 5578,
      "proceedings": 5579,
      "Contr": 5580,
      "administratif": 5581,
      "NO": 5582,
      "ands": 5583,
      "fiants": 5584,
      "financier": 5585,
      "Six": 5586,
      "pursuant": 5587,
      "performance": 5588,
      "itions": 5589,
      "anz": 5590,
      "approxim": 5591,
      "Parti": 5592,
      "publié": 5593,
      "either": 5594,
      "today": 5595,
      "temporary": 5596,
      "elected": 5597,
      "raux": 5598,
      "tables": 5599,
      "traités": 5600,
      "ieuses": 5601,
      "benefit": 5602,
      "armements": 5603,
      "ancing": 5604,
      "rad": 5605,
      "soon": 5606,
      "immédiatement": 5607,
      "embargo": 5608,
      "Recalling": 5609,
      "souverain": 5610,
      "Decade": 5611,
      "associations": 5612,
      "EL": 5613,
      "factors": 5614,
      "compétent": 5615,
      "résou": 5616,
      "patri": 5617,
      "tele": 5618,
      "Braz": 5619,
      "teach": 5620,
      "surtout": 5621,
      "1979": 5622,
      "constitutional": 5623,
      "Kuw": 5624,
      "discipl": 5625,
      "réalisés": 5626,
      "fields": 5627,
      "voyage": 5628,
      "Guinea": 5629,
      "BU": 5630,
      "cependant": 5631,
      "auxquels": 5632,
      "Dan": 5633,
      "inqui": 5634,
      "bel": 5635,
      "réserv": 5636,
      "dérou": 5637,
      "Parliament": 5638,
      "entire": 5639,
      "spéciales": 5640,
      "accept": 5641,
      "87": 5642,
      "accent": 5643,
      "Iraqi": 5644,
      "safegu": 5645,
      "mener": 5646,
      "réforme": 5647,
      "locales": 5648,
      "Bien": 5649,
      "extre": 5650,
      "préci": 5651,
      "CONSEIL": 5652,
      "poir": 5653,
      "150": 5654,
      "financer": 5655,
      "immediate": 5656,
      "election": 5657,
      "Bou": 5658,
      "maintain": 5659,
      "calcul": 5660,
      "restrictions": 5661,
      "permanents": 5662,
      "langue": 5663,
      "hô": 5664,
      "institutional": 5665,
      "plénière": 5666,
      "enregistr": 5667,
      "stressed": 5668,
      "spir": 5669,
      "appear": 5670,
      "Ministers": 5671,
      "oweï": 5672,
      "ministres": 5673,
      "fre": 5674,
      "exclusive": 5675,
      "volume": 5676,
      "Str": 5677,
      "ko": 5678,
      "endor": 5679,
      "Cha": 5680,
      "impli": 5681,
      "propose": 5682,
      "cooperate": 5683,
      "marchés": 5684,
      "95": 5685,
      "menace": 5686,
      "résoudre": 5687,
      "ORGANISATION": 5688,
      "ninth": 5689,
      "energy": 5690,
      "wealth": 5691,
      "accorder": 5692,
      "élément": 5693,
      "Mexico": 5694,
      "ending": 5695,
      "tivités": 5696,
      "particulière": 5697,
      "favoriser": 5698,
      "Sam": 5699,
      "separ": 5700,
      "genti": 5701,
      "asse": 5702,
      "dign": 5703,
      "station": 5704,
      "résil": 5705,
      "Egypt": 5706,
      "pollu": 5707,
      "competi": 5708,
      "advanta": 5709,
      "africaine": 5710,
      "practices": 5711,
      "contacts": 5712,
      "recommande": 5713,
      "entretien": 5714,
      "clairement": 5715,
      "extrême": 5716,
      "West": 5717,
      "portée": 5718,
      "statistics": 5719,
      "ajou": 5720,
      "eto": 5721,
      "partir": 5722,
      "laté": 5723,
      "presse": 5724,
      "Tor": 5725,
      "compon": 5726,
      "your": 5727,
      "allant": 5728,
      "tainable": 5729,
      "Furthermore": 5730,
      "atoire": 5731,
      "deployment": 5732,
      "ueilli": 5733,
      "iop": 5734,
      "eness": 5735,
      "rench": 5736,
      "élevé": 5737,
      "Ay": 5738,
      "Germany": 5739,
      "erait": 5740,
      "cease": 5741,
      "mir": 5742,
      "supplies": 5743,
      "acceptable": 5744,
      "vouloir": 5745,
      "treaty": 5746,
      "gue": 5747,
      "cell": 5748,
      "ature": 5749,
      "atmosp": 5750,
      "ISION": 5751,
      "enhance": 5752,
      "Joint": 5753,
      "gentine": 5754,
      "awar": 5755,
      "venue": 5756,
      "Island": 5757,
      "applied": 5758,
      "MANENT": 5759,
      "PERMANENT": 5760,
      "UNF": 5761,
      "although": 5762,
      "commitments": 5763,
      "saisi": 5764,
      "événements": 5765,
      "autodétermination": 5766,
      "incidents": 5767,
      "Chypre": 5768,
      "ratification": 5769,
      "CONOM": 5770,
      "step": 5771,
      "figure": 5772,
      "reasons": 5773,
      "magne": 5774,
      "detailed": 5775,
      "expenditures": 5776,
      "connex": 5777,
      "FROM": 5778,
      "Signed": 5779,
      "ennent": 5780,
      "possibility": 5781,
      "calend": 5782,
      "empêcher": 5783,
      "sau": 5784,
      "exercer": 5785,
      "liées": 5786,
      "collabor": 5787,
      "spéciaux": 5788,
      "villages": 5789,
      "Pays": 5790,
      "esia": 5791,
      "Moyen": 5792,
      "allait": 5793,
      "FIN": 5794,
      "hoc": 5795,
      "jurisdiction": 5796,
      "bul": 5797,
      "acks": 5798,
      "Northern": 5799,
      "consistent": 5800,
      "Education": 5801,
      "vres": 5802,
      "efficaces": 5803,
      "siè": 5804,
      "Guinée": 5805,
      "believe": 5806,
      "ECONOM": 5807,
      "dul": 5808,
      "COMMIT": 5809,
      "WH": 5810,
      "travailleurs": 5811,
      "81": 5812,
      "approfon": 5813,
      "methods": 5814,
      "UNITA": 5815,
      "maximum": 5816,
      "vente": 5817,
      "receive": 5818,
      "rempla": 5819,
      "provin": 5820,
      "ffr": 5821,
      "pil": 5822,
      "pourquoi": 5823,
      "expert": 5824,
      "Brazil": 5825,
      "CA": 5826,
      "atu": 5827,
      "permit": 5828,
      "Allemagne": 5829,
      "Although": 5830,
      "ett": 5831,
      "toire": 5832,
      "maintenir": 5833,
      "CIL": 5834,
      "approuv": 5835,
      "pêche": 5836,
      "iner": 5837,
      "imparti": 5838,
      "compla": 5839,
      "solidar": 5840,
      "ganda": 5841,
      "espoir": 5842,
      "critères": 5843,
      "FMLN": 5844,
      "assadeur": 5845,
      "Corr": 5846,
      "rang": 5847,
      "cel": 5848,
      "airo": 5849,
      "Sustainable": 5850,
      "identified": 5851,
      "Democratic": 5852,
      "continues": 5853,
      "eté": 5854,
      "regulations": 5855,
      "entreprise": 5856,
      "bases": 5857,
      "rois": 5858,
      "fié": 5859,
      "pénal": 5860,
      "chacun": 5861,
      "bey": 5862,
      "express": 5863,
      "protect": 5864,
      "criter": 5865,
      "répartition": 5866,
      "Adoption": 5867,
      "clearly": 5868,
      "Cam": 5869,
      "itarian": 5870,
      "PROGRAMME": 5871,
      "vues": 5872,
      "association": 5873,
      "mines": 5874,
      "compensation": 5875,
      "COUNCIL": 5876,
      "press": 5877,
      "craft": 5878,
      "tieth": 5879,
      "octro": 5880,
      "represented": 5881,
      "MI": 5882,
      "Sri": 5883,
      "ausp": 5884,
      "familles": 5885,
      "ham": 5886,
      "longer": 5887,
      "ènes": 5888,
      "83": 5889,
      "wit": 5890,
      "legi": 5891,
      "phy": 5892,
      "useful": 5893,
      "French": 5894,
      "vu": 5895,
      "tier": 5896,
      "liés": 5897,
      "viet": 5898,
      "Ge": 5899,
      "UTION": 5900,
      "Leban": 5901,
      "fifth": 5902,
      "icip": 5903,
      "comments": 5904,
      "rid": 5905,
      "freedoms": 5906,
      "successful": 5907,
      "Fourth": 5908,
      "near": 5909,
      "therlands": 5910,
      "officiels": 5911,
      "Netherlands": 5912,
      "armé": 5913,
      "austr": 5914,
      "chargée": 5915,
      "Après": 5916,
      "ouvert": 5917,
      "auspices": 5918,
      "tiens": 5919,
      "decla": 5920,
      "soins": 5921,
      "manifes": 5922,
      "vés": 5923,
      "1977": 5924,
      "Hung": 5925,
      "ging": 5926,
      "organiser": 5927,
      "norm": 5928,
      "négociation": 5929,
      "94": 5930,
      "reporting": 5931,
      "érieures": 5932,
      "1974": 5933,
      "chi": 5934,
      "paid": 5935,
      "geograph": 5936,
      "debate": 5937,
      "pouvait": 5938,
      "tina": 5939,
      "pronon": 5940,
      "she": 5941,
      "ètes": 5942,
      "quelque": 5943,
      "opportunities": 5944,
      "COMMITTEE": 5945,
      "anim": 5946,
      "unch": 5947,
      "cides": 5948,
      "media": 5949,
      "growing": 5950,
      "jamais": 5951,
      "Slova": 5952,
      "abus": 5953,
      "universe": 5954,
      "VEN": 5955,
      "words": 5956,
      "affaire": 5957,
      "efficient": 5958,
      "chefs": 5959,
      "Austria": 5960,
      "best": 5961,
      "Lanka": 5962,
      "approximately": 5963,
      "fort": 5964,
      "intéressés": 5965,
      "RIGH": 5966,
      "gés": 5967,
      "ero": 5968,
      "location": 5969,
      "tendant": 5970,
      "drugs": 5971,
      "adopt": 5972,
      "utile": 5973,
      "TC": 5974,
      "declaration": 5975,
      "REPRESENT": 5976,
      "tableau": 5977,
      "orie": 5978,
      "prépar": 5979,
      "présentation": 5980,
      "spécifiques": 5981,
      "investigation": 5982,
      "Fifth": 5983,
      "gross": 5984,
      "gress": 5985,
      "acro": 5986,
      "dice": 5987,
      "universelle": 5988,
      "Namib": 5989,
      "schedu": 5990,
      "ring": 5991,
      "plication": 5992,
      "largement": 5993,
      "minimum": 5994,
      "neg": 5995,
      "régl": 5996,
      "actuel": 5997,
      "discussed": 5998,
      "lancé": 5999,
      "isent": 6000,
      "retur": 6001,
      "Independ": 6002,
      "alls": 6003,
      "informal": 6004,
      "circon": 6005,
      "démograph": 6006,
      "fourth": 6007,
      "particuliers": 6008,
      "described": 6009,
      "zing": 6010,
      "commod": 6011,
      "consom": 6012,
      "devaient": 6013,
      "pense": 6014,
      "commerciales": 6015,
      "nég": 6016,
      "zation": 6017,
      "autom": 6018,
      "clo": 6019,
      "rapid": 6020,
      "Also": 6021,
      "mean": 6022,
      "reflected": 6023,
      "imposed": 6024,
      "Egypte": 6025,
      "defence": 6026,
      "occupés": 6027,
      "financiers": 6028,
      "offre": 6029,
      "rated": 6030,
      "ressor": 6031,
      "Third": 6032,
      "find": 6033,
      "élector": 6034,
      "logement": 6035,
      "higher": 6036,
      "voulu": 6037,
      "IAEA": 6038,
      "circonstances": 6039,
      "ordon": 6040,
      "diploma": 6041,
      "Agence": 6042,
      "voudra": 6043,
      "installation": 6044,
      "designed": 6045,
      "Swed": 6046,
      "prolif": 6047,
      "ésie": 6048,
      "concluded": 6049,
      "véhicules": 6050,
      ".)": 6051,
      "tivité": 6052,
      "Statis": 6053,
      "stupé": 6054,
      "Fi": 6055,
      "tas": 6056,
      "effectifs": 6057,
      "Tanz": 6058,
      "échanges": 6059,
      "géograph": 6060,
      "conscience": 6061,
      "chim": 6062,
      "Chapitre": 6063,
      "SECURITY": 6064,
      "prolifération": 6065,
      "ples": 6066,
      "esse": 6067,
      "lion": 6068,
      "voire": 6069,
      "Consul": 6070,
      "produit": 6071,
      "Ko": 6072,
      "Pana": 6073,
      "Exper": 6074,
      "procure": 6075,
      "fondamentales": 6076,
      "improving": 6077,
      "Mu": 6078,
      "Maur": 6079,
      "RAP": 6080,
      "atteindre": 6081,
      "educational": 6082,
      "HUMAN": 6083,
      "ered": 6084,
      "adjoint": 6085,
      "NGO": 6086,
      "hiri": 6087,
      "commis": 6088,
      "oung": 6089,
      "consis": 6090,
      "UNT": 6091,
      "legislative": 6092,
      "confront": 6093,
      "avo": 6094,
      "médic": 6095,
      "dealing": 6096,
      "thé": 6097,
      "remains": 6098,
      "dép": 6099,
      "écoles": 6100,
      "titudes": 6101,
      "Crim": 6102,
      "finance": 6103,
      "prob": 6104,
      "camps": 6105,
      "envisag": 6106,
      "exige": 6107,
      "stupéfiants": 6108,
      "SP": 6109,
      "pp": 6110,
      "rary": 6111,
      "comprend": 6112,
      "économies": 6113,
      "convain": 6114,
      "Ethiop": 6115,
      "expli": 6116,
      "events": 6117,
      "rather": 6118,
      "Jamahiri": 6119,
      "Hab": 6120,
      "105": 6121,
      "arantee": 6122,
      "blissement": 6123,
      "municip": 6124,
      "pétro": 6125,
      "headquarters": 6126,
      "ga": 6127,
      "oles": 6128,
      "insur": 6129,
      "distribuer": 6130,
      "bound": 6131,
      "crédit": 6132,
      "systé": 6133,
      "Turkey": 6134,
      "village": 6135,
      "Rio": 6136,
      "latéraux": 6137,
      "recet": 6138,
      "concr": 6139,
      "caractér": 6140,
      "recettes": 6141,
      "importe": 6142,
      "parce": 6143,
      "ighbour": 6144,
      "coopérer": 6145,
      "covered": 6146,
      "racisme": 6147,
      "Jamahiriya": 6148,
      "gic": 6149,
      "matiques": 6150,
      "entrepris": 6151,
      "contingents": 6152,
      "concurrence": 6153,
      "IQUE": 6154,
      "ysical": 6155,
      "rich": 6156,
      "See": 6157,
      "jurid": 6158,
      "resulting": 6159,
      "Polic": 6160,
      "ED": 6161,
      "share": 6162,
      "Projet": 6163,
      "creation": 6164,
      "Cin": 6165,
      "finding": 6166,
      "préparation": 6167,
      "invite": 6168,
      "risque": 6169,
      "forum": 6170,
      "réseau": 6171,
      "tab": 6172,
      "goals": 6173,
      "poor": 6174,
      "limitation": 6175,
      "Elimination": 6176,
      "souveraineté": 6177,
      "beyond": 6178,
      "Sara": 6179,
      "race": 6180,
      "bloc": 6181,
      "èces": 6182,
      "insi": 6183,
      "launch": 6184,
      "Argentine": 6185,
      "Staff": 6186,
      "directeurs": 6187,
      "Training": 6188,
      "Karab": 6189,
      "neighbour": 6190,
      "abuse": 6191,
      "préoccupation": 6192,
      "entrée": 6193,
      "apply": 6194,
      "compliance": 6195,
      "PRE": 6196,
      "signature": 6197,
      "préser": 6198,
      "tiend": 6199,
      "délib": 6200,
      "SER": 6201,
      "ino": 6202,
      "shown": 6203,
      "ouverture": 6204,
      "urban": 6205,
      "amment": 6206,
      "activement": 6207,
      "Bulg": 6208,
      "Kuwait": 6209,
      "Lu": 6210,
      "value": 6211,
      "colonial": 6212,
      "tros": 6213,
      "scope": 6214,
      "Autric": 6215,
      "paper": 6216,
      "Autriche": 6217,
      "IP": 6218,
      "gées": 6219,
      "supply": 6220,
      "touchant": 6221,
      "OUR": 6222,
      "preme": 6223,
      "guarantee": 6224,
      "sign": 6225,
      "sovereignty": 6226,
      "dirigeants": 6227,
      "unités": 6228,
      "INT": 6229,
      "Cependant": 6230,
      "improvement": 6231,
      "félicit": 6232,
      "Belgi": 6233,
      "mechanism": 6234,
      "ALE": 6235,
      "organisé": 6236,
      "chargés": 6237,
      "hosti": 6238,
      "compren": 6239,
      "calls": 6240,
      "Glob": 6241,
      "conducted": 6242,
      "liens": 6243,
      "Party": 6244,
      "aircraft": 6245,
      "ikistan": 6246,
      "Technical": 6247,
      "âti": 6248,
      "Health": 6249,
      "révisé": 6250,
      "iv": 6251,
      "sible": 6252,
      "durant": 6253,
      "efficiency": 6254,
      "figurant": 6255,
      "critical": 6256,
      "minority": 6257,
      "développés": 6258,
      "standard": 6259,
      "recognition": 6260,
      "Université": 6261,
      "ished": 6262,
      "undertake": 6263,
      "fail": 6264,
      "CD": 6265,
      "Koweï": 6266,
      "rd": 6267,
      "ark": 6268,
      "chapter": 6269,
      "QUESTIONS": 6270,
      "Colombia": 6271,
      "awareness": 6272,
      "quo": 6273,
      "ligh": 6274,
      "susmention": 6275,
      "modalités": 6276,
      "Panama": 6277,
      "Wel": 6278,
      "ement": 6279,
      "opposition": 6280,
      "ferme": 6281,
      "occu": 6282,
      "ystem": 6283,
      "formulées": 6284,
      "Né": 6285,
      "concre": 6286,
      "feration": 6287,
      "merci": 6288,
      "sold": 6289,
      "ender": 6290,
      "leaders": 6291,
      "arus": 6292,
      "atory": 6293,
      "oph": 6294,
      "occurred": 6295,
      "Ms": 6296,
      "Legal": 6297,
      "crucial": 6298,
      "migration": 6299,
      "trate": 6300,
      "TIC": 6301,
      "complète": 6302,
      "frontières": 6303,
      "housing": 6304,
      "Western": 6305,
      "Budget": 6306,
      "preventive": 6307,
      "atten": 6308,
      "paras": 6309,
      "killed": 6310,
      "Réaffir": 6311,
      "isant": 6312,
      "agression": 6313,
      "Indonesia": 6314,
      "1973": 6315,
      "Police": 6316,
      "vail": 6317,
      "duty": 6318,
      "Soudan": 6319,
      "universal": 6320,
      "circulated": 6321,
      "recommends": 6322,
      "considérée": 6323,
      "réaliser": 6324,
      "criteria": 6325,
      "agas": 6326,
      "assass": 6327,
      "permettra": 6328,
      "imbab": 6329,
      "cessez": 6330,
      "rur": 6331,
      "accroissement": 6332,
      "Brésil": 6333,
      "fallait": 6334,
      "mach": 6335,
      "ague": 6336,
      "puissent": 6337,
      "Prevention": 6338,
      "Turquie": 6339,
      "entendu": 6340,
      "sives": 6341,
      "continent": 6342,
      "Global": 6343,
      "interne": 6344,
      "certa": 6345,
      "univer": 6346,
      "immediately": 6347,
      "invité": 6348,
      "Cultural": 6349,
      "restructuring": 6350,
      "Pal": 6351,
      "éliminer": 6352,
      "physi": 6353,
      "sû": 6354,
      "agricultural": 6355,
      "licopt": 6356,
      "Armenia": 6357,
      "troops": 6358,
      "parole": 6359,
      "measure": 6360,
      "intended": 6361,
      "hi": 6362,
      "Année": 6363,
      "electoral": 6364,
      "Cap": 6365,
      "Im": 6366,
      "Karabakh": 6367,
      "Koweït": 6368,
      "prop": 6369,
      "impu": 6370,
      "create": 6371,
      "bian": 6372,
      "derniers": 6373,
      "appartenant": 6374,
      "Ghana": 6375,
      "Table": 6376,
      "visit": 6377,
      "appropriées": 6378,
      "holding": 6379,
      "allégations": 6380,
      "opérationnelles": 6381,
      "emphasis": 6382,
      "restructuration": 6383,
      "Bar": 6384,
      "lent": 6385,
      "africains": 6386,
      "PU": 6387,
      "preparatory": 6388,
      "Armé": 6389,
      "medium": 6390,
      "patr": 6391,
      "développer": 6392,
      "aggression": 6393,
      "Moreover": 6394,
      "eal": 6395,
      "reiter": 6396,
      "UNEP": 6397,
      "Criminal": 6398,
      "ón": 6399,
      "SEMB": 6400,
      "vehicles": 6401,
      "Zimbab": 6402,
      "lers": 6403,
      "involving": 6404,
      "supr": 6405,
      "applications": 6406,
      "périodique": 6407,
      "Children": 6408,
      "extreme": 6409,
      "Zimbabwe": 6410,
      "repatri": 6411,
      "niers": 6412,
      "speed": 6413,
      "OMS": 6414,
      "Author": 6415,
      "Item": 6416,
      "came": 6417,
      "parten": 6418,
      "invited": 6419,
      "continuent": 6420,
      "intég": 6421,
      "Accords": 6422,
      "connaître": 6423,
      "DROITS": 6424,
      "yer": 6425,
      "dét": 6426,
      "amende": 6427,
      "èrent": 6428,
      "concernés": 6429,
      "paratifs": 6430,
      "equality": 6431,
      "RIGHTS": 6432,
      "supérieur": 6433,
      "juridic": 6434,
      "IF": 6435,
      "Tak": 6436,
      "remerci": 6437,
      "1996": 6438,
      "Compte": 6439,
      "worksh": 6440,
      "scientific": 6441,
      "Colombie": 6442,
      "MM": 6443,
      "Mat": 6444,
      "fab": 6445,
      "procès": 6446,
      "voix": 6447,
      "donne": 6448,
      "emphasized": 6449,
      "Great": 6450,
      "hap": 6451,
      "Chile": 6452,
      "Décide": 6453,
      "fres": 6454,
      "pourra": 6455,
      "extérieurs": 6456,
      "/...": 6457,
      "Sain": 6458,
      "ajus": 6459,
      "young": 6460,
      "verification": 6461,
      "improved": 6462,
      "Demande": 6463,
      "welcome": 6464,
      "physical": 6465,
      "constitute": 6466,
      "pollution": 6467,
      "seen": 6468,
      "acquisition": 6469,
      "avoid": 6470,
      "REN": 6471,
      "démar": 6472,
      "consid": 6473,
      "Boutros": 6474,
      "Sa": 6475,
      "Vol": 6476,
      "along": 6477,
      "comes": 6478,
      "naît": 6479,
      "UNTAC": 6480,
      "kilomet": 6481,
      "armés": 6482,
      "SECURITE": 6483,
      "FF": 6484,
      "idée": 6485,
      "îles": 6486,
      "prene": 6487,
      "meille": 6488,
      "1970": 6489,
      "Research": 6490,
      "Commonwealth": 6491,
      "Ibid": 6492,
      "ki": 6493,
      "consolid": 6494,
      "participating": 6495,
      "Humanitarian": 6496,
      "CRP": 6497,
      "Refugees": 6498,
      "clari": 6499,
      "partis": 6500,
      "AIEA": 6501,
      "expul": 6502,
      "instruction": 6503,
      "Official": 6504,
      "intensi": 6505,
      "benefits": 6506,
      "itat": 6507,
      "leave": 6508,
      "massive": 6509,
      "km": 6510,
      "111": 6511,
      "extérieur": 6512,
      "sten": 6513,
      "North": 6514,
      "libération": 6515,
      "judiciaires": 6516,
      "hélicopt": 6517,
      "Space": 6518,
      "Habitat": 6519,
      "vit": 6520,
      "helicop": 6521,
      "billion": 6522,
      "actual": 6523,
      "Administr": 6524,
      "Bu": 6525,
      "ji": 6526,
      "anmoins": 6527,
      "transports": 6528,
      "reb": 6529,
      "vey": 6530,
      "Commissaire": 6531,
      "connexes": 6532,
      "absolu": 6533,
      "suprême": 6534,
      "souffr": 6535,
      "priorities": 6536,
      "dynam": 6537,
      "présentés": 6538,
      "lating": 6539,
      "rog": 6540,
      "knowledge": 6541,
      "suggestions": 6542,
      "Paragraph": 6543,
      "mans": 6544,
      "préoccupations": 6545,
      "Ainsi": 6546,
      "Hon": 6547,
      "trition": 6548,
      "INATION": 6549,
      "dents": 6550,
      "allegations": 6551,
      "ANNEXE": 6552,
      "Voir": 6553,
      "zième": 6554,
      "remar": 6555,
      "reflect": 6556,
      "essais": 6557,
      "préal": 6558,
      "jevo": 6559,
      "raised": 6560,
      "hoped": 6561,
      "challenges": 6562,
      "fro": 6563,
      "globale": 6564,
      "CAC": 6565,
      "fl": 6566,
      "accident": 6567,
      "réformes": 6568,
      "garde": 6569,
      "Military": 6570,
      "wise": 6571,
      "week": 6572,
      "SID": 6573,
      "house": 6574,
      "Supreme": 6575,
      "Poland": 6576,
      "prochaine": 6577,
      "115": 6578,
      "principales": 6579,
      "climat": 6580,
      "représente": 6581,
      "influence": 6582,
      "tements": 6583,
      "visite": 6584,
      "hosp": 6585,
      "Question": 6586,
      "Mexique": 6587,
      "Am": 6588,
      "Boli": 6589,
      "Sweden": 6590,
      "CONFER": 6591,
      "audi": 6592,
      "stations": 6593,
      "ocation": 6594,
      "remained": 6595,
      "around": 6596,
      "Chargé": 6597,
      "perspectives": 6598,
      "Equ": 6599,
      "Enfin": 6600,
      "1975": 6601,
      "test": 6602,
      "retrait": 6603,
      "domin": 6604,
      "intitulée": 6605,
      "exprimé": 6606,
      "coordonner": 6607,
      "Ambassadeur": 6608,
      "distinction": 6609,
      "yers": 6610,
      "teful": 6611,
      "Noting": 6612,
      "attacks": 6613,
      "iles": 6614,
      "engager": 6615,
      "welf": 6616,
      "tanding": 6617,
      "constructive": 6618,
      "volontaires": 6619,
      "présentées": 6620,
      "facul": 6621,
      "débats": 6622,
      "Jud": 6623,
      "run": 6624,
      "compter": 6625,
      "Prom": 6626,
      "ert": 6627,
      "affairs": 6628,
      "fulfil": 6629,
      "After": 6630,
      "Serbia": 6631,
      "accr": 6632,
      "prévue": 6633,
      "priorités": 6634,
      "ADD": 6635,
      "Peru": 6636,
      "687": 6637,
      "cription": 6638,
      "différends": 6639,
      "generally": 6640,
      "business": 6641,
      "Ben": 6642,
      "thir": 6643,
      "vital": 6644,
      "ténu": 6645,
      "TIES": 6646,
      "Grande": 6647,
      "Sarajevo": 6648,
      "NP": 6649,
      "stri": 6650,
      "allocation": 6651,
      "namely": 6652,
      "oil": 6653,
      "eter": 6654,
      "aggra": 6655,
      "107": 6656,
      "avancés": 6657,
      "97": 6658,
      "ive": 6659,
      "appointed": 6660,
      "ASSEMB": 6661,
      "Ice": 6662,
      "JET": 6663,
      "TIV": 6664,
      "TING": 6665,
      "ligne": 6666,
      "soldi": 6667,
      "Documents": 6668,
      "Indonésie": 6669,
      "lief": 6670,
      "ologne": 6671,
      "introduction": 6672,
      "arrest": 6673,
      "withdrawal": 6674,
      "revenu": 6675,
      "includes": 6676,
      "espère": 6677,
      "observed": 6678,
      "catégorie": 6679,
      "IZ": 6680,
      "iaux": 6681,
      "round": 6682,
      "stan": 6683,
      "Thus": 6684,
      "efficacement": 6685,
      "Bal": 6686,
      "grateful": 6687,
      "carrying": 6688,
      "devra": 6689,
      "référ": 6690,
      "TU": 6691,
      "acce": 6692,
      "générales": 6693,
      "entreprene": 6694,
      "fourniture": 6695,
      "Chapter": 6696,
      "published": 6697,
      "Contribu": 6698,
      "examination": 6699,
      "1972": 6700,
      "instances": 6701,
      "link": 6702,
      "fting": 6703,
      "inno": 6704,
      "tron": 6705,
      "mix": 6706,
      "Suède": 6707,
      "GO": 6708,
      "aris": 6709,
      "ington": 6710,
      "commune": 6711,
      "périodiques": 6712,
      "reduce": 6713,
      "Arménie": 6714,
      "Iceland": 6715,
      "seas": 6716,
      "Decides": 6717,
      "Denmark": 6718,
      "identification": 6719,
      "atténu": 6720,
      "never": 6721,
      "leader": 6722,
      "interpretation": 6723,
      "PD": 6724,
      "Serbie": 6725,
      "encontre": 6726,
      "created": 6727,
      "Argen": 6728,
      "destinés": 6729,
      "Elles": 6730,
      "always": 6731,
      "isc": 6732,
      "conjo": 6733,
      "Lebanon": 6734,
      "Administrator": 6735,
      "Argentina": 6736,
      "considerable": 6737,
      "RESOL": 6738,
      "échelon": 6739,
      "PRONUC": 6740,
      "Pologne": 6741,
      "kes": 6742,
      "résident": 6743,
      "subregional": 6744,
      "risk": 6745,
      "scientifiques": 6746,
      "Administrateur": 6747,
      "AID": 6748,
      "Soviet": 6749,
      "accepted": 6750,
      "awi": 6751,
      "Observer": 6752,
      "rubr": 6753,
      "autorisé": 6754,
      "Norway": 6755,
      "modifications": 6756,
      "racism": 6757,
      "substantial": 6758,
      "rétablissement": 6759,
      "114": 6760,
      "Parlement": 6761,
      "satellite": 6762,
      "çant": 6763,
      "adhé": 6764,
      "consultatifs": 6765,
      "progressive": 6766,
      "kilometres": 6767,
      "bomb": 6768,
      "code": 6769,
      "généralement": 6770,
      "adjustment": 6771,
      "Session": 6772,
      "sco": 6773,
      "too": 6774,
      "alled": 6775,
      "advisory": 6776,
      "serais": 6777,
      "intégrité": 6778,
      "actively": 6779,
      "category": 6780,
      "abord": 6781,
      "servir": 6782,
      "106": 6783,
      "technological": 6784,
      "wa": 6785,
      "south": 6786,
      "operating": 6787,
      "extension": 6788,
      "traditional": 6789,
      "Policy": 6790,
      "Wash": 6791,
      "sites": 6792,
      "emark": 6793,
      "contractu": 6794,
      "sixième": 6795,
      "trouvera": 6796,
      "TCDC": 6797,
      "Washington": 6798,
      "Drug": 6799,
      "Med": 6800,
      "Reaffir": 6801,
      "médias": 6802,
      "increasingly": 6803,
      "WHO": 6804,
      "soldats": 6805,
      "APRONUC": 6806,
      "desp": 6807,
      "Geor": 6808,
      "Lab": 6809,
      "ié": 6810,
      "movement": 6811,
      "textes": 6812,
      "classi": 6813,
      "illicit": 6814,
      "Danemark": 6815,
      "But": 6816,
      "CP": 6817,
      "wor": 6818,
      "Liban": 6819,
      "rubrique": 6820,
      "Mac": 6821,
      "arco": 6822,
      "vident": 6823,
      "personal": 6824,
      "logis": 6825,
      "competent": 6826,
      "délai": 6827,
      "seule": 6828,
      "despite": 6829,
      "record": 6830,
      "cepti": 6831,
      "mploy": 6832,
      "instructions": 6833,
      "integrity": 6834,
      "single": 6835,
      "extended": 6836,
      "equitable": 6837,
      "Ju": 6838,
      "aspir": 6839,
      "sept": 6840,
      "lives": 6841,
      "excep": 6842,
      "live": 6843,
      "taient": 6844,
      "courage": 6845,
      "statistique": 6846,
      "strict": 6847,
      "rapatr": 6848,
      "crimin": 6849,
      "définir": 6850,
      "Belgique": 6851,
      "Trois": 6852,
      "gain": 6853,
      "heav": 6854,
      "déploiement": 6855,
      "gradation": 6856,
      "octroi": 6857,
      "appare": 6858,
      "products": 6859,
      "détenus": 6860,
      "agir": 6861,
      "aband": 6862,
      "interim": 6863,
      "Italy": 6864,
      "Azerbaïdjan": 6865,
      "verb": 6866,
      "langues": 6867,
      "Ayant": 6868,
      "OPERATION": 6869,
      "étranger": 6870,
      "declared": 6871,
      "Belgium": 6872,
      "dement": 6873,
      "ouve": 6874,
      "endant": 6875,
      "conséquent": 6876,
      "Control": 6877,
      "prosec": 6878,
      "145": 6879,
      "obligé": 6880,
      "votre": 6881,
      "tasks": 6882,
      "SPE": 6883,
      "outs": 6884,
      "contract": 6885,
      "propriété": 6886,
      "Ali": 6887,
      "vège": 6888,
      "istr": 6889,
      "diffus": 6890,
      "Norvège": 6891,
      "informer": 6892,
      "spects": 6893,
      "éché": 6894,
      "look": 6895,
      "ESC": 6896,
      "tically": 6897,
      "assurance": 6898,
      "fournis": 6899,
      "ICATION": 6900,
      "Yugoslav": 6901,
      "bénéficier": 6902,
      "viennent": 6903,
      "donor": 6904,
      "history": 6905,
      "commencé": 6906,
      "vations": 6907,
      "writ": 6908,
      "porté": 6909,
      "tagne": 6910,
      "spirit": 6911,
      "Du": 6912,
      "Ur": 6913,
      "deg": 6914,
      "cold": 6915,
      "representation": 6916,
      "She": 6917,
      "yougosla": 6918,
      "tir": 6919,
      "paign": 6920,
      "elimin": 6921,
      "Bulgar": 6922,
      "invo": 6923,
      "disposi": 6924,
      "sections": 6925,
      "Cinquième": 6926,
      "deliber": 6927,
      "prévus": 6928,
      "Bulgaria": 6929,
      "rencontr": 6930,
      "closely": 6931,
      "chimiques": 6932,
      "aim": 6933,
      "formal": 6934,
      "nutrition": 6935,
      "compétents": 6936,
      "AGEN": 6937,
      "adj": 6938,
      "abouti": 6939,
      "stabil": 6940,
      "ject": 6941,
      "organizational": 6942,
      "suscepti": 6943,
      "talks": 6944,
      "Trust": 6945,
      "aguay": 6946,
      "sorties": 6947,
      "FEM": 6948,
      "110": 6949,
      "édo": 6950,
      "delà": 6951,
      "resser": 6952,
      "param": 6953,
      "stre": 6954,
      "Serbian": 6955,
      "Soci": 6956,
      "OPS": 6957,
      "trafficking": 6958,
      "aties": 6959,
      "trouv": 6960,
      "157": 6961,
      "charges": 6962,
      "enquêtes": 6963,
      "bilatér": 6964,
      "bro": 6965,
      "équip": 6966,
      "approval": 6967,
      "completed": 6968,
      "prisonniers": 6969,
      "states": 6970,
      "avoc": 6971,
      "abandon": 6972,
      "prévenir": 6973,
      "1971": 6974,
      "prisoners": 6975,
      "dépendant": 6976,
      "pread": 6977,
      "submission": 6978,
      "signé": 6979,
      "Particip": 6980,
      "ajustement": 6981,
      "proto": 6982,
      "caused": 6983,
      "ADRESSE": 6984,
      "classe": 6985,
      "Draft": 6986,
      "dee": 6987,
      "decl": 6988,
      "administering": 6989,
      "firm": 6990,
      "librement": 6991,
      "vées": 6992,
      "deter": 6993,
      "représentation": 6994,
      "lingu": 6995,
      "calendrier": 6996,
      "CONFERENCE": 6997,
      "War": 6998,
      "deser": 6999,
      "manque": 7000,
      "preser": 7001,
      "Those": 7002,
      "lined": 7003,
      "grounds": 7004,
      "elec": 7005,
      "ceed": 7006,
      "using": 7007,
      "row": 7008,
      "wished": 7009,
      "Deuxième": 7010,
      "rapatriement": 7011,
      "concours": 7012,
      "DATED": 7013,
      "Liby": 7014,
      "Situ": 7015,
      "Colon": 7016,
      "arbitrary": 7017,
      "Stu": 7018,
      "méd": 7019,
      "requires": 7020,
      "Implement": 7021,
      "sound": 7022,
      "Bre": 7023,
      "Zeal": 7024,
      "souhaite": 7025,
      "delay": 7026,
      "Bulgarie": 7027,
      "Zealand": 7028,
      "fru": 7029,
      "mining": 7030,
      "définition": 7031,
      "trouve": 7032,
      "sexu": 7033,
      "applicables": 7034,
      "Nom": 7035,
      "Pen": 7036,
      "tle": 7037,
      "connaissance": 7038,
      "érance": 7039,
      "controlled": 7040,
      "orientation": 7041,
      "Part": 7042,
      "stock": 7043,
      "Implementation": 7044,
      "sés": 7045,
      "èque": 7046,
      "conferences": 7047,
      "ADRESSEE": 7048,
      "contient": 7049,
      "rien": 7050,
      "humanité": 7051,
      "earlier": 7052,
      "séminaires": 7053,
      "auxquelles": 7054,
      "industrie": 7055,
      "Che": 7056,
      "Plu": 7057,
      "Sah": 7058,
      "pal": 7059,
      "Italie": 7060,
      "produced": 7061,
      "ensuite": 7062,
      "unit": 7063,
      "froide": 7064,
      "AG": 7065,
      "lis": 7066,
      "prece": 7067,
      "renew": 7068,
      "followed": 7069,
      "PEMENT": 7070,
      "Plusieurs": 7071,
      "usage": 7072,
      "ustom": 7073,
      "mineurs": 7074,
      "Nigeria": 7075,
      "MES": 7076,
      "mur": 7077,
      "intergouvernementales": 7078,
      "considération": 7079,
      "extrabudgétaires": 7080,
      "determine": 7081,
      "fos": 7082,
      "lour": 7083,
      "apparent": 7084,
      "courses": 7085,
      "communes": 7086,
      "DATEE": 7087,
      "illicite": 7088,
      "haute": 7089,
      "consultants": 7090,
      "SITU": 7091,
      "rations": 7092,
      "iran": 7093,
      "promul": 7094,
      "Activités": 7095,
      "recevoir": 7096,
      "responsable": 7097,
      "pertinents": 7098,
      "Tw": 7099,
      "devons": 7100,
      "migrants": 7101,
      "subsidiary": 7102,
      "repe": 7103,
      "los": 7104,
      "rendus": 7105,
      "continué": 7106,
      "determined": 7107,
      "vulner": 7108,
      "2000": 7109,
      "Agr": 7110,
      "auquel": 7111,
      "donors": 7112,
      "histoire": 7113,
      "perspective": 7114,
      "disputes": 7115,
      "saur": 7116,
      "asy": 7117,
      "belong": 7118,
      "Chili": 7119,
      "home": 7120,
      "reviewed": 7121,
      "régler": 7122,
      "rable": 7123,
      "Sea": 7124,
      "defined": 7125,
      "caus": 7126,
      "enty": 7127,
      "Person": 7128,
      "ATES": 7129,
      "Pl": 7130,
      "grie": 7131,
      "iences": 7132,
      "nership": 7133,
      "reflec": 7134,
      "latter": 7135,
      "sectori": 7136,
      "seminars": 7137,
      "train": 7138,
      "103": 7139,
      "Notant": 7140,
      "énoncés": 7141,
      "tard": 7142,
      "takes": 7143,
      "mortal": 7144,
      "Turk": 7145,
      "avantages": 7146,
      "insuffis": 7147,
      "reforms": 7148,
      "mettant": 7149,
      "souligner": 7150,
      "yah": 7151,
      "ciaux": 7152,
      "UNOS": 7153,
      "contraire": 7154,
      "occidentale": 7155,
      "Authority": 7156,
      "UNOSOM": 7157,
      "System": 7158,
      "rejet": 7159,
      "rester": 7160,
      "pacifiques": 7161,
      "planned": 7162,
      "Bosnian": 7163,
      "damage": 7164,
      "azerb": 7165,
      "préparatifs": 7166,
      "milieu": 7167,
      "urged": 7168,
      "arrested": 7169,
      "goods": 7170,
      "Labour": 7171,
      "azerbaïdjan": 7172,
      "ever": 7173,
      "RECOMM": 7174,
      "constituer": 7175,
      "remaining": 7176,
      "vulné": 7177,
      "letin": 7178,
      "lieux": 7179,
      "persist": 7180,
      "102": 7181,
      "processing": 7182,
      "settlements": 7183,
      "destinées": 7184,
      "obstacle": 7185,
      "alimentaire": 7186,
      "functioning": 7187,
      "RESSED": 7188,
      "airobi": 7189,
      "ADDRESSED": 7190,
      "Nairobi": 7191,
      "immun": 7192,
      "trip": 7193,
      "Montene": 7194,
      "vra": 7195,
      "expla": 7196,
      "plut": 7197,
      "series": 7198,
      "tences": 7199,
      "andum": 7200,
      "Review": 7201,
      "élè": 7202,
      "doute": 7203,
      "LU": 7204,
      "quit": 7205,
      "Finan": 7206,
      "Premier": 7207,
      "Power": 7208,
      "HOM": 7209,
      "poursuite": 7210,
      "principalement": 7211,
      "DEVELOPMENT": 7212,
      "Consider": 7213,
      "iting": 7214,
      "options": 7215,
      "ouverte": 7216,
      "Scientif": 7217,
      "remb": 7218,
      "ically": 7219,
      "Malawi": 7220,
      "Peoples": 7221,
      "juridiction": 7222,
      "eries": 7223,
      "amas": 7224,
      "Paraguay": 7225,
      "Guy": 7226,
      "severe": 7227,
      "scientifique": 7228,
      "kilomètres": 7229,
      "average": 7230,
      "SA": 7231,
      "atch": 7232,
      "host": 7233,
      "Supplement": 7234,
      "languages": 7235,
      "aérien": 7236,
      "attaques": 7237,
      "Food": 7238,
      "épo": 7239,
      "tivities": 7240,
      "illég": 7241,
      "chois": 7242,
      "sixth": 7243,
      "africain": 7244,
      "formuler": 7245,
      "Madagas": 7246,
      "Scientific": 7247,
      "Madagascar": 7248,
      "viser": 7249,
      "And": 7250,
      "compétences": 7251,
      "catégories": 7252,
      "Fam": 7253,
      "negative": 7254,
      "Follow": 7255,
      "WP": 7256,
      "asile": 7257,
      "musul": 7258,
      "considère": 7259,
      "acces": 7260,
      "chem": 7261,
      "budgets": 7262,
      "ILO": 7263,
      "accompag": 7264,
      "Situation": 7265,
      "orité": 7266,
      "absten": 7267,
      "judice": 7268,
      "HOMME": 7269,
      "ounded": 7270,
      "Esp": 7271,
      "altern": 7272,
      "opti": 7273,
      "Concer": 7274,
      "regards": 7275,
      "campaign": 7276,
      "réserves": 7277,
      "ick": 7278,
      "commend": 7279,
      "préventive": 7280,
      "judge": 7281,
      "markets": 7282,
      "announ": 7283,
      "repatriation": 7284,
      "theless": 7285,
      "ducing": 7286,
      "inflation": 7287,
      "competence": 7288,
      "governing": 7289,
      "procurement": 7290,
      "soldiers": 7291,
      "Financial": 7292,
      "Cze": 7293,
      "réconciliation": 7294,
      "gratu": 7295,
      "osé": 7296,
      "civilians": 7297,
      "modifier": 7298,
      "DEVELOPPEMENT": 7299,
      "Czech": 7300,
      "101": 7301,
      "numer": 7302,
      "identify": 7303,
      "certaine": 7304,
      "Dro": 7305,
      "mètres": 7306,
      "liers": 7307,
      "fournitures": 7308,
      "naissances": 7309,
      "prêts": 7310,
      "dûment": 7311,
      "Koso": 7312,
      "urrent": 7313,
      "assure": 7314,
      "donnée": 7315,
      "navi": 7316,
      "involvement": 7317,
      "threaten": 7318,
      "disaster": 7319,
      "Mos": 7320,
      "èlement": 7321,
      "éré": 7322,
      "beh": 7323,
      "notion": 7324,
      "moral": 7325,
      "allowance": 7326,
      "endorsed": 7327,
      "IES": 7328,
      "provo": 7329,
      "traiter": 7330,
      "figurent": 7331,
      "fiée": 7332,
      "INS": 7333,
      "southern": 7334,
      "auront": 7335,
      "Trin": 7336,
      "productive": 7337,
      "satellites": 7338,
      "Profession": 7339,
      "rect": 7340,
      "marine": 7341,
      "fondée": 7342,
      "encouraged": 7343,
      "élection": 7344,
      "ocide": 7345,
      "site": 7346,
      "exemp": 7347,
      "Chief": 7348,
      "Réunion": 7349,
      "considéré": 7350,
      "town": 7351,
      "ote": 7352,
      "reply": 7353,
      "sought": 7354,
      "processes": 7355,
      "annuel": 7356,
      "wishes": 7357,
      "mental": 7358,
      "tensions": 7359,
      "Southern": 7360,
      "Palestiniens": 7361,
      "claims": 7362,
      "legitimate": 7363,
      "asylum": 7364,
      "DIS": 7365,
      "dég": 7366,
      "choix": 7367,
      "faible": 7368,
      "conviction": 7369,
      "achieving": 7370,
      "aware": 7371,
      "gest": 7372,
      "paraître": 7373,
      "supplémentaire": 7374,
      "consolidation": 7375,
      "tise": 7376,
      "extrêmement": 7377,
      "voudrais": 7378,
      "Op": 7379,
      "admissi": 7380,
      "Congress": 7381,
      "drawn": 7382,
      "supervision": 7383,
      "échéant": 7384,
      "topic": 7385,
      "trente": 7386,
      "passer": 7387,
      "priot": 7388,
      "sectoral": 7389,
      "Nigéria": 7390,
      "ampleur": 7391,
      "financed": 7392,
      "highly": 7393,
      "tendance": 7394,
      "expand": 7395,
      "decide": 7396,
      "FORM": 7397,
      "sumption": 7398,
      "manifestations": 7399,
      "Bretagne": 7400,
      "112": 7401,
      "devoir": 7402,
      "imprison": 7403,
      "Membre": 7404,
      "estim": 7405,
      "tiennent": 7406,
      "reconn": 7407,
      "exportations": 7408,
      "Agric": 7409,
      "infrastruct": 7410,
      "Syri": 7411,
      "LY": 7412,
      "entier": 7413,
      "Forum": 7414,
      "industry": 7415,
      "ners": 7416,
      "plément": 7417,
      "104": 7418,
      "attack": 7419,
      "découl": 7420,
      "alimentation": 7421,
      "systématique": 7422,
      "Sto": 7423,
      "gg": 7424,
      "reprise": 7425,
      "occupé": 7426,
      "appuie": 7427,
      "investissement": 7428,
      "dimension": 7429,
      "shel": 7430,
      "orb": 7431,
      "aspect": 7432,
      "trust": 7433,
      "treaties": 7434,
      "puiss": 7435,
      "prélimin": 7436,
      "likely": 7437,
      "separate": 7438,
      "Kaz": 7439,
      "conç": 7440,
      "tax": 7441,
      "accused": 7442,
      "Activities": 7443,
      "présidents": 7444,
      "Sel": 7445,
      "Tob": 7446,
      "Zé": 7447,
      "isti": 7448,
      "statistical": 7449,
      "reçues": 7450,
      "LETTER": 7451,
      "OG": 7452,
      "UNR": 7453,
      "130": 7454,
      "mouvements": 7455,
      "bâti": 7456,
      "mess": 7457,
      "break": 7458,
      "AIR": 7459,
      "Supplément": 7460,
      "hostil": 7461,
      "ONUSOM": 7462,
      "chemical": 7463,
      "valid": 7464,
      "perpet": 7465,
      "Zélande": 7466,
      "ades": 7467,
      "hard": 7468,
      "âge": 7469,
      "icing": 7470,
      "chif": 7471,
      "records": 7472,
      "Croatian": 7473,
      "consommation": 7474,
      "Rel": 7475,
      "oto": 7476,
      "comprendre": 7477,
      "gui": 7478,
      "transformation": 7479,
      "attemp": 7480,
      "disse": 7481,
      "humaine": 7482,
      "entreprendre": 7483,
      "COOPERATION": 7484,
      "guarantees": 7485,
      "spo": 7486,
      "factor": 7487,
      "meilleure": 7488,
      "dissemination": 7489,
      "Having": 7490,
      "volution": 7491,
      "guid": 7492,
      "260": 7493,
      "susc": 7494,
      "allevi": 7495,
      "Brit": 7496,
      "adul": 7497,
      "án": 7498,
      "réus": 7499,
      "appréci": 7500,
      "outcome": 7501,
      "DEPEN": 7502,
      "milliards": 7503,
      "resulted": 7504,
      "fishing": 7505,
      "LETTRE": 7506,
      "Def": 7507,
      "RELA": 7508,
      "Serbes": 7509,
      "attache": 7510,
      "Iranian": 7511,
      "mutual": 7512,
      "execution": 7513,
      "conseils": 7514,
      "José": 7515,
      "doc": 7516,
      "ury": 7517,
      "syste": 7518,
      "specifically": 7519,
      "attached": 7520,
      "flows": 7521,
      "Jordan": 7522,
      "RESOLUTION": 7523,
      "Eas": 7524,
      "érés": 7525,
      "containing": 7526,
      "milliers": 7527,
      "Maroc": 7528,
      "yougoslave": 7529,
      "èle": 7530,
      "provenant": 7531,
      "dépos": 7532,
      "concernées": 7533,
      "bande": 7534,
      "conformity": 7535,
      "emplois": 7536,
      "diminution": 7537,
      "Etant": 7538,
      "seem": 7539,
      "ATS": 7540,
      "compatible": 7541,
      ")]": 7542,
      "ases": 7543,
      "mobilization": 7544,
      "disciplin": 7545,
      "Sim": 7546,
      "senti": 7547,
      "Jour": 7548,
      "almost": 7549,
      "associated": 7550,
      "Support": 7551,
      "Nas": 7552,
      "attitude": 7553,
      "mainly": 7554,
      "supplement": 7555,
      "willing": 7556,
      "inclusion": 7557,
      "démocratiques": 7558,
      "fall": 7559,
      "occo": 7560,
      "proliferation": 7561,
      "Experts": 7562,
      "rurales": 7563,
      "Ha": 7564,
      "argu": 7565,
      "écrit": 7566,
      "invitation": 7567,
      "primer": 7568,
      "SITUATION": 7569,
      "entry": 7570,
      "complement": 7571,
      "passe": 7572,
      "utés": 7573,
      "Morocco": 7574,
      "119": 7575,
      "complet": 7576,
      "approaches": 7577,
      "constra": 7578,
      "Pér": 7579,
      "city": 7580,
      "ormais": 7581,
      "CIP": 7582,
      "Persons": 7583,
      "endeav": 7584,
      "français": 7585,
      "categories": 7586,
      "geographical": 7587,
      "IRE": 7588,
      "resu": 7589,
      "timely": 7590,
      "climate": 7591,
      "SECRETARY": 7592,
      "Hongrie": 7593,
      "Professional": 7594,
      "Strate": 7595,
      "gent": 7596,
      "left": 7597,
      "établis": 7598,
      "haus": 7599,
      "réd": 7600,
      "ousands": 7601,
      "182": 7602,
      "Hungary": 7603,
      "IB": 7604,
      "figh": 7605,
      "tig": 7606,
      "erra": 7607,
      "préhen": 7608,
      "enterprises": 7609,
      "believes": 7610,
      "subsidiaires": 7611,
      "OAU": 7612,
      "compu": 7613,
      "Aristi": 7614,
      "Any": 7615,
      "profit": 7616,
      "communiqué": 7617,
      "Monténég": 7618,
      "lasting": 7619,
      "signalé": 7620,
      "Liberia": 7621,
      "ots": 7622,
      "impossible": 7623,
      "ondur": 7624,
      "leading": 7625,
      "atteinte": 7626,
      "province": 7627,
      "inscrire": 7628,
      "concrete": 7629,
      "Ram": 7630,
      "modes": 7631,
      "intelle": 7632,
      "malgré": 7633,
      "TABLEAU": 7634,
      "intérimaire": 7635,
      "élu": 7636,
      "OUA": 7637,
      "disposer": 7638,
      "Spain": 7639,
      "transmitted": 7640,
      "expect": 7641,
      "Aristide": 7642,
      "Election": 7643,
      "ibility": 7644,
      "verser": 7645,
      "illegal": 7646,
      "victime": 7647,
      "changed": 7648,
      "Montenegro": 7649,
      "MONU": 7650,
      "initiated": 7651,
      "utilisés": 7652,
      "effectivement": 7653,
      "extérieure": 7654,
      "pouvaient": 7655,
      "flagr": 7656,
      "UNRWA": 7657,
      "Eastern": 7658,
      "FNU": 7659,
      "conviend": 7660,
      "subprogramme": 7661,
      "autorisation": 7662,
      "Tobago": 7663,
      "intellectu": 7664,
      "suppli": 7665,
      "secure": 7666,
      "reconciliation": 7667,
      "indépendants": 7668,
      "deep": 7669,
      "prie": 7670,
      "écologique": 7671,
      "suivante": 7672,
      "Mol": 7673,
      "considérer": 7674,
      "plutôt": 7675,
      "Tim": 7676,
      "cts": 7677,
      "gender": 7678,
      "lérance": 7679,
      "rest": 7680,
      "prolong": 7681,
      "manie": 7682,
      "mode": 7683,
      "longue": 7684,
      "north": 7685,
      "Subcommittee": 7686,
      "offences": 7687,
      "CTPD": 7688,
      "respectivement": 7689,
      "written": 7690,
      "Tous": 7691,
      "flex": 7692,
      "inser": 7693,
      "collection": 7694,
      "universel": 7695,
      "Dom": 7696,
      "juges": 7697,
      "suffering": 7698,
      "Saint": 7699,
      "Hoc": 7700,
      "Many": 7701,
      "Coordin": 7702,
      "effectuées": 7703,
      "Kosovo": 7704,
      "Britain": 7705,
      "érons": 7706,
      "réparation": 7707,
      "expertise": 7708,
      "transferts": 7709,
      "coloniaux": 7710,
      "prime": 7711,
      "utes": 7712,
      "naissant": 7713,
      "industries": 7714,
      "revital": 7715,
      "Pérou": 7716,
      "détru": 7717,
      "counter": 7718,
      "allowed": 7719,
      "élarus": 7720,
      "deployed": 7721,
      "Science": 7722,
      "électorale": 7723,
      "murder": 7724,
      "Asian": 7725,
      "Guyana": 7726,
      "dangere": 7727,
      "incorpora": 7728,
      "modern": 7729,
      "INST": 7730,
      "souligne": 7731,
      "terrorisme": 7732,
      "Tunisia": 7733,
      "récente": 7734,
      "AGENDA": 7735,
      "YS": 7736,
      "places": 7737,
      "incom": 7738,
      "icaines": 7739,
      "terre": 7740,
      "rési": 7741,
      "noter": 7742,
      "compétentes": 7743,
      "vié": 7744,
      "Tunisie": 7745,
      "Self": 7746,
      "erland": 7747,
      "relate": 7748,
      "indique": 7749,
      "Alger": 7750,
      "weapon": 7751,
      "exprimer": 7752,
      "sensibil": 7753,
      "Autres": 7754,
      "sin": 7755,
      "scru": 7756,
      "répression": 7757,
      "goal": 7758,
      "datab": 7759,
      "Greece": 7760,
      "Sing": 7761,
      "effectif": 7762,
      "demands": 7763,
      "students": 7764,
      "mobilisation": 7765,
      "khaz": 7766,
      "Monténégro": 7767,
      "Jér": 7768,
      "Mace": 7769,
      "exces": 7770,
      "tivity": 7771,
      "ANC": 7772,
      "décider": 7773,
      "Taj": 7774,
      "cs": 7775,
      "cult": 7776,
      "say": 7777,
      "sovié": 7778,
      "illus": 7779,
      "domm": 7780,
      "désormais": 7781,
      "Burk": 7782,
      "infrastructures": 7783,
      "Dj": 7784,
      "Fas": 7785,
      "tch": 7786,
      "van": 7787,
      "resse": 7788,
      "Inspe": 7789,
      "Kazakh": 7790,
      "unless": 7791,
      "acqui": 7792,
      "accommod": 7793,
      "maje": 7794,
      "REG": 7795,
      "mployment": 7796,
      "Pap": 7797,
      "révision": 7798,
      "aisse": 7799,
      "ibid": 7800,
      "essentiels": 7801,
      "expenses": 7802,
      "érieurs": 7803,
      "réponses": 7804,
      "cting": 7805,
      "gence": 7806,
      "indépendant": 7807,
      "dues": 7808,
      "AIRES": 7809,
      "trouvent": 7810,
      "Hondur": 7811,
      "Certain": 7812,
      "nul": 7813,
      "lear": 7814,
      "maintained": 7815,
      "relèvement": 7816,
      "guil": 7817,
      "lutter": 7818,
      "revê": 7819,
      "adaptation": 7820,
      "provinces": 7821,
      "Aux": 7822,
      "ouest": 7823,
      "ourg": 7824,
      "numér": 7825,
      "Romania": 7826,
      "PUB": 7827,
      "Lig": 7828,
      "WOR": 7829,
      "placements": 7830,
      "thirty": 7831,
      "sides": 7832,
      "impose": 7833,
      "judges": 7834,
      "envisage": 7835,
      "structural": 7836,
      "arising": 7837,
      "Lat": 7838,
      "LOS": 7839,
      "sav": 7840,
      "wana": 7841,
      "116": 7842,
      "COMITE": 7843,
      "ancien": 7844,
      "Technology": 7845,
      "Bi": 7846,
      "rise": 7847,
      "évo": 7848,
      "ares": 7849,
      "convo": 7850,
      "auv": 7851,
      "sole": 7852,
      "premiers": 7853,
      "biais": 7854,
      "reconnaître": 7855,
      "Belarus": 7856,
      "Depu": 7857,
      "opinions": 7858,
      "Annexe": 7859,
      "instauration": 7860,
      "accomplis": 7861,
      "When": 7862,
      "soumettre": 7863,
      "Macedon": 7864,
      "oa": 7865,
      "added": 7866,
      "saisie": 7867,
      "conduite": 7868,
      "australe": 7869,
      "ilib": 7870,
      "nationalité": 7871,
      "menée": 7872,
      "recalled": 7873,
      "culturel": 7874,
      "transparence": 7875,
      "Conventions": 7876,
      "abled": 7877,
      "Br": 7878,
      "nd": 7879,
      "turn": 7880,
      "émin": 7881,
      "plein": 7882,
      "chotrop": 7883,
      "Autorité": 7884,
      "Main": 7885,
      "ata": 7886,
      "contributed": 7887,
      "setting": 7888,
      "ships": 7889,
      "Regis": 7890,
      "Pan": 7891,
      "SUMM": 7892,
      "campagne": 7893,
      "accompli": 7894,
      "rapportant": 7895,
      "chez": 7896,
      "brief": 7897,
      "Azerbaijani": 7898,
      "témoign": 7899,
      "macro": 7900,
      "iro": 7901,
      "Auc": 7902,
      "changement": 7903,
      "agricole": 7904,
      "envisaged": 7905,
      "payment": 7906,
      "terrorism": 7907,
      "régulièrement": 7908,
      "présidence": 7909,
      "Ivoire": 7910,
      "dési": 7911,
      "aret": 7912,
      "Libéria": 7913,
      "handicapés": 7914,
      "numerous": 7915,
      "ping": 7916,
      "oupes": 7917,
      "ATT": 7918,
      "Roumanie": 7919,
      "concrètes": 7920,
      "Fac": 7921,
      "affect": 7922,
      "accepter": 7923,
      "Français": 7924,
      "psych": 7925,
      "delivery": 7926,
      "unity": 7927,
      "troupes": 7928,
      "serbe": 7929,
      "favorable": 7930,
      "AIDS": 7931,
      "1997": 7932,
      "poursui": 7933,
      "whom": 7934,
      "drogue": 7935,
      "UND": 7936,
      "Guam": 7937,
      "magistr": 7938,
      "coordinated": 7939,
      "syndic": 7940,
      "OIT": 7941,
      "dos": 7942,
      "ôte": 7943,
      "prévoir": 7944,
      "appeals": 7945,
      "individus": 7946,
      "granted": 7947,
      "limitée": 7948,
      "aspirations": 7949,
      "Gol": 7950,
      "Sett": 7951,
      "tative": 7952,
      "premières": 7953,
      "procédé": 7954,
      "croate": 7955,
      "modification": 7956,
      "Universal": 7957,
      "Ver": 7958,
      "fs": 7959,
      "pied": 7960,
      "uxemb": 7961,
      "ogni": 7962,
      "credit": 7963,
      "valoir": 7964,
      "Minor": 7965,
      "lerance": 7966,
      "double": 7967,
      "Burkina": 7968,
      "conque": 7969,
      "Assist": 7970,
      "entered": 7971,
      "Prime": 7972,
      "Honduras": 7973,
      "lait": 7974,
      "décla": 7975,
      "prelimin": 7976,
      "considers": 7977,
      "pouvant": 7978,
      "appointment": 7979,
      "municipal": 7980,
      "burg": 7981,
      "référence": 7982,
      "servi": 7983,
      "mandates": 7984,
      "enseign": 7985,
      "rapporteur": 7986,
      "Bélarus": 7987,
      "DG": 7988,
      "pair": 7989,
      "UNIFEM": 7990,
      "strengthened": 7991,
      "augmenté": 7992,
      "UNFPA": 7993,
      "Côte": 7994,
      "Over": 7995,
      "unanim": 7996,
      "obtain": 7997,
      "Records": 7998,
      "professional": 7999,
      "constant": 8000,
      "helicopter": 8001,
      "déclare": 8002,
      "211": 8003,
      "regu": 8004,
      "ision": 8005,
      "privil": 8006,
      "Atlan": 8007,
      "recev": 8008,
      "doub": 8009,
      "investigations": 8010,
      "Faso": 8011,
      "États": 8012,
      "division": 8013,
      "mots": 8014,
      "contribué": 8015,
      "voul": 8016,
      "autonomes": 8017,
      "Georgi": 8018,
      "221": 8019,
      "Barb": 8020,
      "GR": 8021,
      "ought": 8022,
      "duties": 8023,
      "participated": 8024,
      "ARI": 8025,
      "Finland": 8026,
      "insurance": 8027,
      "preliminary": 8028,
      "urb": 8029,
      "gradu": 8030,
      "passage": 8031,
      "commencer": 8032,
      "Gr": 8033,
      "Tu": 8034,
      "custom": 8035,
      "suis": 8036,
      "gencies": 8037,
      "morandum": 8038,
      "1960": 8039,
      "dealt": 8040,
      "Johan": 8041,
      "ét": 8042,
      "trends": 8043,
      "devront": 8044,
      "totale": 8045,
      "Relations": 8046,
      "conception": 8047,
      "search": 8048,
      "énom": 8049,
      "communiquer": 8050,
      "ey": 8051,
      "nateur": 8052,
      "contains": 8053,
      "Sierra": 8054,
      "punishment": 8055,
      "peines": 8056,
      "portent": 8057,
      "étaire": 8058,
      "communau": 8059,
      "respectively": 8060,
      "reduced": 8061,
      "Espagne": 8062,
      "fy": 8063,
      "alo": 8064,
      "size": 8065,
      "stages": 8066,
      "125": 8067,
      "indemnité": 8068,
      "préparer": 8069,
      "physique": 8070,
      "rembour": 8071,
      "teenth": 8072,
      "correspondant": 8073,
      "safeguards": 8074,
      "deterior": 8075,
      "tchèque": 8076,
      "Ear": 8077,
      "123": 8078,
      "inced": 8079,
      "offence": 8080,
      "géographique": 8081,
      "SUMMARY": 8082,
      "Port": 8083,
      "XI": 8084,
      "adi": 8085,
      "conver": 8086,
      "contain": 8087,
      "classes": 8088,
      "extérieures": 8089,
      "autonomie": 8090,
      "SPECIAL": 8091,
      "Turkish": 8092,
      "Sene": 8093,
      "demment": 8094,
      "decreas": 8095,
      "connaissances": 8096,
      "140": 8097,
      "appliquées": 8098,
      "resolve": 8099,
      "hélicoptère": 8100,
      "cean": 8101,
      "prostitution": 8102,
      "spons": 8103,
      "fonctionnaire": 8104,
      "pauvres": 8105,
      "played": 8106,
      "SECRETAIRE": 8107,
      "Rés": 8108,
      "fed": 8109,
      "orn": 8110,
      "restor": 8111,
      "113": 8112,
      "suffisamment": 8113,
      "maritime": 8114,
      "privatization": 8115,
      "Powers": 8116,
      "preparations": 8117,
      "anniversaire": 8118,
      "temporaire": 8119,
      "parent": 8120,
      "valent": 8121,
      "villes": 8122,
      "appelé": 8123,
      "fournisse": 8124,
      "rablement": 8125,
      "enhancing": 8126,
      "threats": 8127,
      "citizen": 8128,
      "encouraging": 8129,
      "consultative": 8130,
      "Recogni": 8131,
      "Bus": 8132,
      "heading": 8133,
      "incidence": 8134,
      "quantième": 8135,
      "conforme": 8136,
      "rémun": 8137,
      "grade": 8138,
      "senior": 8139,
      "méthode": 8140,
      "réseaux": 8141,
      "énégal": 8142,
      "Macédo": 8143,
      "Timor": 8144,
      "Macédoine": 8145,
      "noc": 8146,
      "160": 8147,
      "vingt": 8148,
      "intéressant": 8149,
      "expanded": 8150,
      "cra": 8151,
      "ived": 8152,
      "wan": 8153,
      "apports": 8154,
      "communs": 8155,
      "marg": 8156,
      "atteint": 8157,
      "engagé": 8158,
      "frag": 8159,
      "desire": 8160,
      "UNID": 8161,
      "twenty": 8162,
      "Racial": 8163,
      "considérablement": 8164,
      "sexe": 8165,
      "utilization": 8166,
      "pattern": 8167,
      "Macedonia": 8168,
      "180": 8169,
      "établie": 8170,
      "MINIS": 8171,
      "poration": 8172,
      "lying": 8173,
      "achat": 8174,
      "prompt": 8175,
      "espérons": 8176,
      "délais": 8177,
      "premises": 8178,
      "voted": 8179,
      "prévoy": 8180,
      "servicing": 8181,
      "supports": 8182,
      "utilisé": 8183,
      "Finlande": 8184,
      "Accordingly": 8185,
      "Zambia": 8186,
      "scheduled": 8187,
      "atif": 8188,
      "refu": 8189,
      "parlers": 8190,
      "Ener": 8191,
      "diversification": 8192,
      "réglementation": 8193,
      "amended": 8194,
      "partments": 8195,
      "exercis": 8196,
      "risques": 8197,
      "leadership": 8198,
      "Syrian": 8199,
      "mén": 8200,
      "pourront": 8201,
      "Command": 8202,
      "soule": 8203,
      "organisme": 8204,
      "ultérieure": 8205,
      "phr": 8206,
      "candidats": 8207,
      "preparing": 8208,
      "rom": 8209,
      "comité": 8210,
      "apparti": 8211,
      "mother": 8212,
      "loin": 8213,
      "huit": 8214,
      "corps": 8215,
      "libér": 8216,
      "identité": 8217,
      "SERV": 8218,
      "ape": 8219,
      "END": 8220,
      "Examen": 8221,
      "Malay": 8222,
      "simple": 8223,
      "hospital": 8224,
      "Promo": 8225,
      "Luxemb": 8226,
      "pror": 8227,
      "prenant": 8228,
      "territoriale": 8229,
      "accrue": 8230,
      "Following": 8231,
      "Ano": 8232,
      "Grè": 8233,
      "adverse": 8234,
      "pourparlers": 8235,
      "ESTI": 8236,
      "PROV": 8237,
      "Resources": 8238,
      "iraquien": 8239,
      "voisins": 8240,
      "Grèce": 8241,
      "Abu": 8242,
      "mauv": 8243,
      "phénom": 8244,
      "alian": 8245,
      "purch": 8246,
      "directed": 8247,
      "EXAM": 8248,
      "orer": 8249,
      "Leone": 8250,
      "issait": 8251,
      "Togo": 8252,
      "diversité": 8253,
      "spatiales": 8254,
      "imprisonment": 8255,
      "nomin": 8256,
      "fondé": 8257,
      "allocated": 8258,
      "accordée": 8259,
      "BUDG": 8260,
      "bation": 8261,
      "conce": 8262,
      "destro": 8263,
      "outes": 8264,
      "stable": 8265,
      "Forces": 8266,
      "Another": 8267,
      "MAR": 8268,
      "XV": 8269,
      "considering": 8270,
      "professionnelle": 8271,
      "Cal": 8272,
      "Ecu": 8273,
      "semaine": 8274,
      "observateur": 8275,
      "montre": 8276,
      "accueilli": 8277,
      "Alg": 8278,
      "linked": 8279,
      "realization": 8280,
      "drew": 8281,
      "tiendra": 8282,
      "dommages": 8283,
      "voc": 8284,
      "ores": 8285,
      "oure": 8286,
      "convenu": 8287,
      "negotiating": 8288,
      "ilibre": 8289,
      "exportation": 8290,
      "transparency": 8291,
      "Luxembourg": 8292,
      "SS": 8293,
      "maintaining": 8294,
      "previously": 8295,
      "alternative": 8296,
      "cultures": 8297,
      "parfois": 8298,
      "acities": 8299,
      "circul": 8300,
      "existants": 8301,
      "changing": 8302,
      "suspen": 8303,
      "strongly": 8304,
      "multilatérales": 8305,
      "puissances": 8306,
      "Strip": 8307,
      "pér": 8308,
      "uer": 8309,
      "word": 8310,
      "onal": 8311,
      "garantis": 8312,
      "privatisation": 8313,
      "Certains": 8314,
      "degree": 8315,
      "St": 8316,
      "crises": 8317,
      "affecting": 8318,
      "esty": 8319,
      "finances": 8320,
      "CRC": 8321,
      "menaces": 8322,
      "Algeria": 8323,
      "Calls": 8324,
      "PLE": 8325,
      "advice": 8326,
      "principale": 8327,
      "primarily": 8328,
      "coordinating": 8329,
      "religieuses": 8330,
      "PCN": 8331,
      "ocused": 8332,
      "Two": 8333,
      "Ecuador": 8334,
      "venth": 8335,
      "supporting": 8336,
      "Appe": 8337,
      "disasters": 8338,
      "skill": 8339,
      "sumé": 8340,
      "ieuse": 8341,
      "why": 8342,
      "buts": 8343,
      "arrangement": 8344,
      "welcomes": 8345,
      "sifs": 8346,
      "BUDGET": 8347,
      "Ele": 8348,
      "abor": 8349,
      "maines": 8350,
      "122": 8351,
      "culturelle": 8352,
      "rappelle": 8353,
      "penalty": 8354,
      "FNUAP": 8355,
      "Gé": 8356,
      "inj": 8357,
      "itement": 8358,
      "ordinary": 8359,
      "rétabli": 8360,
      "subsequently": 8361,
      "Loi": 8362,
      "focused": 8363,
      "start": 8364,
      "insk": 8365,
      "résolu": 8366,
      "capabilities": 8367,
      "permettrait": 8368,
      "VENTION": 8369,
      "appropriés": 8370,
      "privés": 8371,
      "orientale": 8372,
      "arrêté": 8373,
      "ophob": 8374,
      "PAC": 8375,
      "ped": 8376,
      "enfin": 8377,
      "urges": 8378,
      "lau": 8379,
      "selected": 8380,
      "comités": 8381,
      "REF": 8382,
      "advance": 8383,
      "SOCIAL": 8384,
      "intergouvernemental": 8385,
      "Moldo": 8386,
      "Faj": 8387,
      "reti": 8388,
      "retard": 8389,
      "norms": 8390,
      "américaine": 8391,
      "dimensions": 8392,
      "remplacer": 8393,
      "failure": 8394,
      "Assistant": 8395,
      "ASE": 8396,
      "Budgetary": 8397,
      "DANS": 8398,
      "Emir": 8399,
      "arded": 8400,
      "partage": 8401,
      "survi": 8402,
      "prevail": 8403,
      "capacities": 8404,
      "examined": 8405,
      "cinquantième": 8406,
      "Serbs": 8407,
      "extensive": 8408,
      "sequently": 8409,
      "Do": 8410,
      "element": 8411,
      "rol": 8412,
      "tari": 8413,
      "book": 8414,
      "résultat": 8415,
      "subjected": 8416,
      "Taking": 8417,
      "verbale": 8418,
      "fréqu": 8419,
      "capable": 8420,
      "consacré": 8421,
      "itors": 8422,
      "outer": 8423,
      "semaines": 8424,
      "acting": 8425,
      "owing": 8426,
      "moyenne": 8427,
      "vaste": 8428,
      "anniversary": 8429,
      "eight": 8430,
      "itablement": 8431,
      "venues": 8432,
      "ologie": 8433,
      "tienne": 8434,
      "faculta": 8435,
      "connu": 8436,
      "ériel": 8437,
      "civiles": 8438,
      "definition": 8439,
      "districts": 8440,
      "ATIVE": 8441,
      "ressortis": 8442,
      "Rég": 8443,
      "ITES": 8444,
      "photo": 8445,
      "offen": 8446,
      "historique": 8447,
      "lumière": 8448,
      "préalable": 8449,
      "CLU": 8450,
      "FP": 8451,
      "Ow": 8452,
      "iers": 8453,
      "sea": 8454,
      "true": 8455,
      "ditif": 8456,
      "shared": 8457,
      "prisons": 8458,
      "subsist": 8459,
      "commerciaux": 8460,
      "tendances": 8461,
      "focal": 8462,
      "dri": 8463,
      "executive": 8464,
      "formations": 8465,
      "écla": 8466,
      "compta": 8467,
      "Sever": 8468,
      "privées": 8469,
      "limites": 8470,
      "Latvia": 8471,
      "Fajr": 8472,
      "BI": 8473,
      "rement": 8474,
      "tswana": 8475,
      "internes": 8476,
      "engaged": 8477,
      "Prince": 8478,
      "strugg": 8479,
      "conclure": 8480,
      "DECISION": 8481,
      "Slovak": 8482,
      "Johannes": 8483,
      "page": 8484,
      "illeur": 8485,
      "ection": 8486,
      "emen": 8487,
      "Programmes": 8488,
      "directeur": 8489,
      "Botswana": 8490,
      "employe": 8491,
      "régissant": 8492,
      "massac": 8493,
      "speaking": 8494,
      "attempt": 8495,
      "Family": 8496,
      "Ligue": 8497,
      "lac": 8498,
      "route": 8499,
      "géré": 8500,
      "règle": 8501,
      "Malais": 8502,
      "MISSION": 8503,
      "renvoy": 8504,
      "operative": 8505,
      "cross": 8506,
      "requis": 8507,
      "decade": 8508,
      "Singa": 8509,
      "bra": 8510,
      "éman": 8511,
      "quir": 8512,
      "loss": 8513,
      "ressort": 8514,
      "annexes": 8515,
      "décide": 8516,
      "payments": 8517,
      "powers": 8518,
      "Muslim": 8519,
      "chiffres": 8520,
      "Deputy": 8521,
      "phrase": 8522,
      "Moldova": 8523,
      "tension": 8524,
      "approbation": 8525,
      "elimination": 8526,
      "complaints": 8527,
      "solidarité": 8528,
      "Status": 8529,
      "longtemps": 8530,
      "quently": 8531,
      "Samoa": 8532,
      "prices": 8533,
      "matières": 8534,
      "facing": 8535,
      "représentent": 8536,
      "spécialistes": 8537,
      "comply": 8538,
      "IU": 8539,
      "Uganda": 8540,
      "Yemen": 8541,
      "éten": 8542,
      "Organiz": 8543,
      "itié": 8544,
      "créés": 8545,
      "fiftieth": 8546,
      "automa": 8547,
      "dépit": 8548,
      "Date": 8549,
      "nies": 8550,
      "ENN": 8551,
      "gible": 8552,
      "custo": 8553,
      "From": 8554,
      "guaranteed": 8555,
      "Zambie": 8556,
      "ruption": 8557,
      "complémentaires": 8558,
      "component": 8559,
      "Malaisie": 8560,
      "Nat": 8561,
      "SON": 8562,
      "ium": 8563,
      "déser": 8564,
      "stade": 8565,
      "registered": 8566,
      "offered": 8567,
      "maladies": 8568,
      "heavy": 8569,
      "Johannesburg": 8570,
      "AVE": 8571,
      "Cri": 8572,
      "Minsk": 8573,
      "PV": 8574,
      "examinées": 8575,
      "PNUE": 8576,
      "workshops": 8577,
      "Unity": 8578,
      "aller": 8579,
      "extradition": 8580,
      "missiles": 8581,
      "élargir": 8582,
      "machiner": 8583,
      "Algérie": 8584,
      "innoc": 8585,
      "courir": 8586,
      "utilisées": 8587,
      "Indigenous": 8588,
      "PORTS": 8589,
      "capitale": 8590,
      "Kazakhstan": 8591,
      "flight": 8592,
      "harm": 8593,
      "job": 8594,
      "tox": 8595,
      "chô": 8596,
      "certif": 8597,
      "prioritaires": 8598,
      "extraordinaire": 8599,
      "opening": 8600,
      "futures": 8601,
      "vulnerable": 8602,
      "JOUR": 8603,
      "ué": 8604,
      "content": 8605,
      "REPORT": 8606,
      "contributing": 8607,
      "highest": 8608,
      "ryth": 8609,
      "mouvement": 8610,
      "Senegal": 8611,
      "ECE": 8612,
      "SC": 8613,
      "participant": 8614,
      "atie": 8615,
      "Application": 8616,
      "Estonia": 8617,
      "Energy": 8618,
      "lates": 8619,
      "price": 8620,
      "énoncées": 8621,
      "formule": 8622,
      "felt": 8623,
      "Statistical": 8624,
      "détéri": 8625,
      "bir": 8626,
      "Coopération": 8627,
      "army": 8628,
      "Malaysia": 8629,
      "Ah": 8630,
      "bene": 8631,
      "présentée": 8632,
      "incombe": 8633,
      "tures": 8634,
      "entière": 8635,
      "exécutions": 8636,
      "collecte": 8637,
      "arméni": 8638,
      "west": 8639,
      "atoires": 8640,
      "arding": 8641,
      "plaintes": 8642,
      "137": 8643,
      "contrary": 8644,
      "Governors": 8645,
      "permettent": 8646,
      "discriminatoires": 8647,
      "Nuclear": 8648,
      "bénéficiaires": 8649,
      "NGOs": 8650,
      "admission": 8651,
      "accepté": 8652,
      "défis": 8653,
      "Principles": 8654,
      "Que": 8655,
      "déch": 8656,
      "giving": 8657,
      "travaill": 8658,
      "administrante": 8659,
      "Pendant": 8660,
      "invent": 8661,
      "formed": 8662,
      "itée": 8663,
      "sharing": 8664,
      "Weap": 8665,
      "specified": 8666,
      "recognize": 8667,
      "deliver": 8668,
      "Field": 8669,
      "Urges": 8670,
      "Several": 8671,
      "grading": 8672,
      "emprison": 8673,
      "117": 8674,
      "croissant": 8675,
      "Palestinians": 8676,
      "Mari": 8677,
      "sense": 8678,
      "liby": 8679,
      "agh": 8680,
      "facts": 8681,
      "ARTIC": 8682,
      "destiné": 8683,
      "complexes": 8684,
      "idées": 8685,
      "uel": 8686,
      "pertes": 8687,
      "accél": 8688,
      "committees": 8689,
      "sciences": 8690,
      "imed": 8691,
      "illon": 8692,
      "entièrement": 8693,
      "167": 8694,
      "achievement": 8695,
      "Transport": 8696,
      "Torture": 8697,
      "212": 8698,
      "inhabitants": 8699,
      "Consci": 8700,
      "commence": 8701,
      "credi": 8702,
      "diplomacy": 8703,
      "addressing": 8704,
      "illicites": 8705,
      "challenge": 8706,
      "pétrole": 8707,
      "naire": 8708,
      "répondu": 8709,
      "diplomatie": 8710,
      "Span": 8711,
      "demeure": 8712,
      "élargissement": 8713,
      "dément": 8714,
      "minutes": 8715,
      "TIF": 8716,
      "release": 8717,
      "appropriée": 8718,
      "PROJET": 8719,
      "Letton": 8720,
      "inspections": 8721,
      "exploration": 8722,
      "amendments": 8723,
      "computer": 8724,
      "prorog": 8725,
      "prud": 8726,
      "creating": 8727,
      "penser": 8728,
      "relève": 8729,
      "espag": 8730,
      "Our": 8731,
      "ball": 8732,
      "meilleur": 8733,
      "acted": 8734,
      "sépar": 8735,
      "Jérusalem": 8736,
      "isations": 8737,
      "compréhen": 8738,
      "121": 8739,
      "sément": 8740,
      "cussions": 8741,
      "indica": 8742,
      "victim": 8743,
      "secondary": 8744,
      "acknow": 8745,
      "agricoles": 8746,
      "explic": 8747,
      "ORDRE": 8748,
      "Spanish": 8749,
      "uré": 8750,
      "chy": 8751,
      "insis": 8752,
      "programmation": 8753,
      "chances": 8754,
      "célé": 8755,
      "continuera": 8756,
      "existantes": 8757,
      "interested": 8758,
      "adéqu": 8759,
      "fortun": 8760,
      "Gar": 8761,
      "blement": 8762,
      "sac": 8763,
      "contenant": 8764,
      "INFORM": 8765,
      "owned": 8766,
      "lancer": 8767,
      "obligatoire": 8768,
      "dignité": 8769,
      "Contributions": 8770,
      "Lettonie": 8771,
      "Esta": 8772,
      "appeared": 8773,
      "actuelles": 8774,
      "sustained": 8775,
      "Personnel": 8776,
      "èg": 8777,
      "viable": 8778,
      "travers": 8779,
      "thereby": 8780,
      "names": 8781,
      "ADOP": 8782,
      "message": 8783,
      "Minorities": 8784,
      "BE": 8785,
      "Its": 8786,
      "rea": 8787,
      "entend": 8788,
      "commises": 8789,
      "heur": 8790,
      "movements": 8791,
      "marri": 8792,
      "Intergovernmental": 8793,
      "warning": 8794,
      "profonde": 8795,
      "extremely": 8796,
      "TD": 8797,
      "chino": 8798,
      "exports": 8799,
      "itées": 8800,
      "travailler": 8801,
      "appelle": 8802,
      "augmenter": 8803,
      "coordinate": 8804,
      "Abkhaz": 8805,
      "tandis": 8806,
      "aretz": 8807,
      "EXAMEN": 8808,
      "io": 8809,
      "altitude": 8810,
      "dian": 8811,
      "obtained": 8812,
      "assor": 8813,
      "understand": 8814,
      "inclure": 8815,
      "1990s": 8816,
      "israéliennes": 8817,
      "adhésion": 8818,
      "elabor": 8819,
      "océ": 8820,
      "constitutes": 8821,
      "bio": 8822,
      "DUCTION": 8823,
      "utiles": 8824,
      "instaurer": 8825,
      "rappeler": 8826,
      "Syst": 8827,
      "nine": 8828,
      "thousands": 8829,
      "icated": 8830,
      "meur": 8831,
      "Tok": 8832,
      "officielles": 8833,
      "preuves": 8834,
      "welfare": 8835,
      "incorporated": 8836,
      "Of": 8837,
      "ij": 8838,
      "pens": 8839,
      "signing": 8840,
      "réalité": 8841,
      "incen": 8842,
      "distinct": 8843,
      "burden": 8844,
      "competition": 8845,
      "Réaffirmant": 8846,
      "reprises": 8847,
      "astal": 8848,
      "participent": 8849,
      "expressément": 8850,
      "joué": 8851,
      "Bahamas": 8852,
      "components": 8853,
      "Libyan": 8854,
      "Colonial": 8855,
      "Sénégal": 8856,
      "ison": 8857,
      "loo": 8858,
      "cessation": 8859,
      "Procure": 8860,
      "correc": 8861,
      "IMINATION": 8862,
      "sexual": 8863,
      "Invite": 8864,
      "CEE": 8865,
      "APPL": 8866,
      "meaning": 8867,
      "Troisième": 8868,
      "thème": 8869,
      "citoyen": 8870,
      "demonstr": 8871,
      "arcotic": 8872,
      "Mou": 8873,
      "iring": 8874,
      "rapatri": 8875,
      "Entre": 8876,
      "Proce": 8877,
      "ADMINIS": 8878,
      "constitutionnel": 8879,
      "concepts": 8880,
      "ancienne": 8881,
      "confirmed": 8882,
      "ERS": 8883,
      "Puissance": 8884,
      "exposé": 8885,
      "ratified": 8886,
      "favourable": 8887,
      "Participation": 8888,
      "cen": 8889,
      "entrus": 8890,
      "rage": 8891,
      "perform": 8892,
      "considerations": 8893,
      "Islande": 8894,
      "AUPRES": 8895,
      "heureusement": 8896,
      "machinery": 8897,
      "exécuter": 8898,
      "valeurs": 8899,
      "définitive": 8900,
      "unable": 8901,
      "procur": 8902,
      "porations": 8903,
      "pressure": 8904,
      "entités": 8905,
      "borne": 8906,
      "1963": 8907,
      "availability": 8908,
      "effectuer": 8909,
      "chacune": 8910,
      "constraints": 8911,
      "Air": 8912,
      "Afin": 8913,
      "dant": 8914,
      "idé": 8915,
      "devenir": 8916,
      "nationals": 8917,
      "believed": 8918,
      "américains": 8919,
      "fournies": 8920,
      "époque": 8921,
      "remédi": 8922,
      "toy": 8923,
      "ols": 8924,
      "amor": 8925,
      "outlined": 8926,
      "consent": 8927,
      "subsistance": 8928,
      "Envoy": 8929,
      "homes": 8930,
      "fournie": 8931,
      "psychotrop": 8932,
      "wides": 8933,
      "Independence": 8934,
      "susceptibles": 8935,
      "LIC": 8936,
      "motiv": 8937,
      "blan": 8938,
      "Finally": 8939,
      "designated": 8940,
      "définitif": 8941,
      "saurait": 8942,
      "guidance": 8943,
      "Iles": 8944,
      "Mali": 8945,
      "veut": 8946,
      "écologiques": 8947,
      "enfance": 8948,
      "stood": 8949,
      "demonst": 8950,
      "ajouter": 8951,
      "dossi": 8952,
      "Option": 8953,
      "ouverts": 8954,
      "Thail": 8955,
      "located": 8956,
      "culturelles": 8957,
      "recovery": 8958,
      "dispositif": 8959,
      "eaux": 8960,
      "mie": 8961,
      "enting": 8962,
      "isol": 8963,
      "décr": 8964,
      "pourcentage": 8965,
      "gratitude": 8966,
      "124": 8967,
      "administratifs": 8968,
      "toral": 8969,
      "colonisation": 8970,
      "détail": 8971,
      "occuper": 8972,
      "systematic": 8973,
      "Rules": 8974,
      "icate": 8975,
      "réper": 8976,
      "pers": 8977,
      "partners": 8978,
      "assessments": 8979,
      "seriously": 8980,
      "candidates": 8981,
      "Defence": 8982,
      "facultatif": 8983,
      "Thailand": 8984,
      "Educational": 8985,
      "OT": 8986,
      "bran": 8987,
      "levée": 8988,
      "otherwise": 8989,
      "Thaï": 8990,
      "mobiliser": 8991,
      "intéressées": 8992,
      "assume": 8993,
      "Equateur": 8994,
      "Géor": 8995,
      "OV": 8996,
      "Red": 8997,
      "rassemb": 8998,
      "tí": 8999,
      "rejec": 9000,
      "dissemin": 9001,
      "bilatéraux": 9002,
      "oeuv": 9003,
      "enhanced": 9004,
      "ECONOMIC": 9005,
      "mée": 9006,
      "belief": 9007,
      "Eng": 9008,
      "faci": 9009,
      "Moham": 9010,
      "imposées": 9011,
      "Nombre": 9012,
      "NA": 9013,
      "itz": 9014,
      "seeking": 9015,
      "établies": 9016,
      "intimid": 9017,
      "coordonnées": 9018,
      "dispute": 9019,
      "advantage": 9020,
      "stream": 9021,
      "Lie": 9022,
      "dad": 9023,
      "consumption": 9024,
      "ARAB": 9025,
      "reconnaît": 9026,
      "savings": 9027,
      "struggle": 9028,
      "Crime": 9029,
      "Thaïlande": 9030,
      "dead": 9031,
      "lignes": 9032,
      "dignity": 9033,
      "except": 9034,
      "imposition": 9035,
      "abon": 9036,
      "Chris": 9037,
      "observance": 9038,
      "1969": 9039,
      "charged": 9040,
      "neutr": 9041,
      "étroitement": 9042,
      "légitime": 9043,
      "RAPPORT": 9044,
      "partenaires": 9045,
      "navires": 9046,
      "birth": 9047,
      "usu": 9048,
      "ilar": 9049,
      "locale": 9050,
      "équilibre": 9051,
      "sollic": 9052,
      "Armenian": 9053,
      "deliberations": 9054,
      "erad": 9055,
      "lets": 9056,
      "considérés": 9057,
      "spécifique": 9058,
      "nettoy": 9059,
      "matériels": 9060,
      "investigate": 9061,
      "Première": 9062,
      "launched": 9063,
      "custody": 9064,
      "atar": 9065,
      "accum": 9066,
      "155": 9067,
      "spect": 9068,
      "118": 9069,
      "lled": 9070,
      "Quant": 9071,
      "atrice": 9072,
      "differences": 9073,
      "équipes": 9074,
      "vulnérables": 9075,
      "ctive": 9076,
      "grec": 9077,
      "minage": 9078,
      "Addis": 9079,
      "jury": 9080,
      "réaffirmé": 9081,
      "préserver": 9082,
      "ancy": 9083,
      "agers": 9084,
      "consiste": 9085,
      "values": 9086,
      "espite": 9087,
      "indeed": 9088,
      "mixte": 9089,
      "Despite": 9090,
      "PAL": 9091,
      "proven": 9092,
      "forte": 9093,
      "voies": 9094,
      "entity": 9095,
      "pension": 9096,
      "Martí": 9097,
      "paraît": 9098,
      "limiter": 9099,
      "assumer": 9100,
      "mographic": 9101,
      "fle": 9102,
      "zes": 9103,
      "liqui": 9104,
      "courant": 9105,
      "closed": 9106,
      "iales": 9107,
      "alien": 9108,
      "ffre": 9109,
      "interorganisations": 9110,
      "concernent": 9111,
      "néanmoins": 9112,
      "ibouti": 9113,
      "itesse": 9114,
      "original": 9115,
      "emergencies": 9116,
      "séminaire": 9117,
      "destroy": 9118,
      "Règ": 9119,
      "inet": 9120,
      "ettre": 9121,
      "began": 9122,
      "commerciale": 9123,
      "étudiants": 9124,
      "assisting": 9125,
      "Establish": 9126,
      "load": 9127,
      "limite": 9128,
      "assessed": 9129,
      "faced": 9130,
      "offrir": 9131,
      "Ethiopia": 9132,
      "lights": 9133,
      "LAR": 9134,
      "lais": 9135,
      "ettes": 9136,
      "izes": 9137,
      "ential": 9138,
      "alién": 9139,
      "ordinaires": 9140,
      "counsel": 9141,
      "blessés": 9142,
      "intégrer": 9143,
      "detaine": 9144,
      "ORGANIZ": 9145,
      "marchand": 9146,
      "Reaffirming": 9147,
      "posent": 9148,
      "gravement": 9149,
      "affron": 9150,
      "refl": 9151,
      "opened": 9152,
      "neighbouring": 9153,
      "artis": 9154,
      "Their": 9155,
      "voi": 9156,
      "assurances": 9157,
      "STR": 9158,
      "fédéral": 9159,
      "Outre": 9160,
      "widely": 9161,
      "demeur": 9162,
      "mot": 9163,
      "chten": 9164,
      "1968": 9165,
      "TRANS": 9166,
      "législatives": 9167,
      "médicaux": 9168,
      "soviétique": 9169,
      "Djibouti": 9170,
      "Dr": 9171,
      "Pren": 9172,
      "veto": 9173,
      "za": 9174,
      "évident": 9175,
      "restitu": 9176,
      "déminage": 9177,
      "room": 9178,
      "lower": 9179,
      "financés": 9180,
      "Anti": 9181,
      "précise": 9182,
      "Representatives": 9183,
      "Observ": 9184,
      "Estonie": 9185,
      "référendum": 9186,
      "nettoyage": 9187,
      "departments": 9188,
      "quis": 9189,
      "apporté": 9190,
      "little": 9191,
      "Rouge": 9192,
      "Nag": 9193,
      "1949": 9194,
      "compor": 9195,
      "exac": 9196,
      "ured": 9197,
[...]
